{
  "version": "1.0",
  "truncation": null,
  "padding": null,
  "added_tokens": [
    {
      "id": 0,
      "content": "<bos>",
      "single_word": false,
      "lstrip": false,
      "rstrip": false,
      "normalized": false,
      "special": true
    },
    {
      "id": 1,
      "content": "<eos>",
      "single_word": false,
      "lstrip": false,
      "rstrip": false,
      "normalized": false,
      "special": true
    },
    {
      "id": 2,
      "content": "<pad>",
      "single_word": false,
      "lstrip": false,
      "rstrip": false,
      "normalized": false,
      "special": true
    },
    {
      "id": 3,
      "content": "<unk>",
      "single_word": false,
      "lstrip": false,
      "rstrip": false,
      "normalized": false,
      "special": true
    }
  ],
  "normalizer": null,
  "pre_tokenizer": {
    "type": "ByteLevel",
    "add_prefix_space": false,
    "trim_offsets": true,
    "use_regex": true
  },
  "post_processor": {
    "type": "TemplateProcessing",
    "single": [
      {
        "SpecialToken": {
          "id": "<bos>",
          "type_id": 0
        }
      },
      {
        "Sequence": {
          "id": "A",
          "type_id": 0
        }
      },
      {
        "SpecialToken": {
          "id": "<eos>",
          "type_id": 0
        }
      }
    ],
    "pair": [
      {
        "Sequence": {
          "id": "A",
          "type_id": 0
        }
      },
      {
        "Sequence": {
          "id": "B",
          "type_id": 1
        }
      }
    ],
    "special_tokens": {
      "<bos>": {
        "id": "<bos>",
        "ids": [
          0
        ],
        "tokens": [
          "<bos>"
        ]
      },
      "<eos>": {
        "id": "<eos>",
        "ids": [
          1
        ],
        "tokens": [
          "<eos>"
        ]
      }
    }
  },
  "decoder": {
    "type": "ByteLevel",
    "add_prefix_space": true,
    "trim_offsets": true,
    "use_regex": true
  },
  "model": {
    "type": "BPE",
    "dropout": null,
    "unk_token": "<unk>",
    "continuing_subword_prefix": null,
    "end_of_word_suffix": null,
    "fuse_unk": false,
    "byte_fallback": false,
    "ignore_merges": false,
    "vocab": {
      "<bos>": 0,
      "<eos>": 1,
      "<pad>": 2,
      "<unk>": 3,
      "\"": 4,
      "'": 5,
      "(": 6,
      ")": 7,
      "*": 8,
      "+": 9,
      ",": 10,
      "-": 11,
      ".": 12,
      "/": 13,
      "0": 14,
      "1": 15,
      "2": 16,
      "3": 17,
      "4": 18,
      "5": 19,
      "6": 20,
      "7": 21,
      "8": 22,
      "9": 23,
      ":": 24,
      "<": 25,
      "=": 26,
      ">": 27,
      "@": 28,
      "A": 29,
      "B": 30,
      "C": 31,
      "D": 32,
      "E": 33,
      "F": 34,
      "G": 35,
      "H": 36,
      "I": 37,
      "J": 38,
      "K": 39,
      "L": 40,
      "M": 41,
      "N": 42,
      "O": 43,
      "P": 44,
      "Q": 45,
      "R": 46,
      "S": 47,
      "T": 48,
      "U": 49,
      "W": 50,
      "X": 51,
      "Y": 52,
      "[": 53,
      "]": 54,
      "a": 55,
      "b": 56,
      "c": 57,
      "d": 58,
      "e": 59,
      "f": 60,
      "g": 61,
      "h": 62,
      "i": 63,
      "j": 64,
      "k": 65,
      "l": 66,
      "m": 67,
      "n": 68,
      "o": 69,
      "p": 70,
      "q": 71,
      "r": 72,
      "s": 73,
      "t": 74,
      "u": 75,
      "v": 76,
      "w": 77,
      "x": 78,
      "y": 79,
      "{": 80,
      "}": 81,
      "¡": 82,
      "¢": 83,
      "£": 84,
      "¤": 85,
      "¥": 86,
      "¦": 87,
      "§": 88,
      "¨": 89,
      "©": 90,
      "ª": 91,
      "«": 92,
      "¬": 93,
      "®": 94,
      "¯": 95,
      "°": 96,
      "±": 97,
      "²": 98,
      "³": 99,
      "´": 100,
      "µ": 101,
      "¶": 102,
      "·": 103,
      "¸": 104,
      "¹": 105,
      "º": 106,
      "»": 107,
      "¼": 108,
      "½": 109,
      "¾": 110,
      "¿": 111,
      "Â": 112,
      "Ã": 113,
      "â": 114,
      "ã": 115,
      "ä": 116,
      "å": 117,
      "æ": 118,
      "ç": 119,
      "è": 120,
      "é": 121,
      "ï": 122,
      "Ċ": 123,
      "Ġ": 124,
      "Ģ": 125,
      "ģ": 126,
      "Ĥ": 127,
      "ĥ": 128,
      "Ħ": 129,
      "ħ": 130,
      "Ĩ": 131,
      "ĩ": 132,
      "Ī": 133,
      "ī": 134,
      "Ĭ": 135,
      "ĭ": 136,
      "Į": 137,
      "į": 138,
      "İ": 139,
      "ı": 140,
      "Ĳ": 141,
      "ĳ": 142,
      "Ĵ": 143,
      "ĵ": 144,
      "Ķ": 145,
      "ķ": 146,
      "ĸ": 147,
      "Ĺ": 148,
      "ĺ": 149,
      "Ļ": 150,
      "ļ": 151,
      "Ľ": 152,
      "ľ": 153,
      "Ŀ": 154,
      "ŀ": 155,
      "Ł": 156,
      "ł": 157,
      "Ń": 158,
      "ï¼": 159,
      "ãĢ": 160,
      "ãĢĤ": 161,
      "ä¸": 162,
      "çĶ": 163,
      "çĶ¨": 164,
      "åĬ": 165,
      "ï¼Į": 166,
      "ãĢģ": 167,
      "æĪ": 168,
      "ï¼ļ": 169,
      "æī": 170,
      "åĪ": 171,
      "çĶ¨æĪ": 172,
      "çĶ¨æĪ·": 173,
      "åı": 174,
      "æĺ": 175,
      "åĬ©": 176,
      "æķ": 177,
      "æīĭ": 178,
      "ä»": 179,
      "è¿": 180,
      "åĬ©æīĭ": 181,
      "è¯": 182,
      "åħ": 183,
      "æĺ¯": 184,
      "éĢ": 185,
      "ä¹": 186,
      "ä½": 187,
      "æľ": 188,
      "è®": 189,
      "æĢ": 190,
      "éĩ": 191,
      "æķ°": 192,
      "çļ": 193,
      "çļĦ": 194,
      "åº": 195,
      "äº": 196,
      "å¤": 197,
      "ï¼Ī": 198,
      "ï¼ī": 199,
      "ä¹Ī": 200,
      "ç»": 201,
      "ç¨": 202,
      "Ģä¹Ī": 203,
      "ä»Ģä¹Ī": 204,
      "èĢ": 205,
      "è§": 206,
      "å®": 207,
      "åĲ": 208,
      "åŃ": 209,
      "è¿ĩ": 210,
      "ä¿": 211,
      "å°": 212,
      "ç®": 213,
      "ç¨ĭ": 214,
      "èĢĥ": 215,
      "æł": 216,
      "ä¸İ": 217,
      "¦Ĥ": 218,
      "æ³": 219,
      "æĶ": 220,
      "ï¼Ł": 221,
      "æĢĿ": 222,
      "è¿ĩç¨ĭ": 223,
      "èĢĥè¿ĩç¨ĭ": 224,
      "æĢĿèĢĥè¿ĩç¨ĭ": 225,
      "è§£": 226,
      "æİ": 227,
      "å¯": 228,
      "åĩ": 229,
      "æį": 230,
      "ä»Ģä¹Īæĺ¯": 231,
      "å¦Ĥ": 232,
      "å®ļ": 233,
      "ä¸Ģ": 234,
      "éĢļ": 235,
      "åĨ": 236,
      "å°ı": 237,
      "åį": 238,
      "åł": 239,
      "åºı": 240,
      "ï¼īãĢģ": 241,
      "å¿": 242,
      "æı": 243,
      "ç½": 244,
      "åĪĨ": 245,
      "æľī": 246,
      "æĸ": 247,
      "åĽ": 248,
      "çĲ": 249,
      "è´": 250,
      "éĩį": 251,
      "çĲĨ": 252,
      "å¼": 253,
      "æĽ": 254,
      "çİ": 255,
      "Ńç»": 256,
      "è®Ńç»": 257,
      "è®Ńç»ĥ": 258,
      "å¹": 259,
      "æĿ": 260,
      "è¾": 261,
      "å¯¹": 262,
      "éĢļä¿": 263,
      "æıĲ": 264,
      "¾åł": 265,
      "è¯¾åł": 266,
      "æĢ§": 267,
      "éĩĬ": 268,
      "æĽ´": 269,
      "è¯¾åłĤ": 270,
      "æŃ": 271,
      "éĹ": 272,
      "ä¸º": 273,
      "ä½ķ": 274,
      "è®¡": 275,
      "æķ°æį": 276,
      "è§£éĩĬ": 277,
      "å¦Ĥä½ķ": 278,
      "æķ°æį®": 279,
      "¤º": 280,
      "æ¯": 281,
      "ç¤º": 282,
      "è¶": 283,
      "åº¦": 284,
      "ç®Ĺ": 285,
      "éĢļä¿Ĺ": 286,
      "¦ģ": 287,
      "è¦ģ": 288,
      "åħ¥": 289,
      "ä¼": 290,
      "è¡": 291,
      "æ³¨": 292,
      "¡å": 293,
      "åĴ": 294,
      "æ¨": 295,
      "éª": 296,
      "åıĤ": 297,
      "ä½į": 298,
      "åŃĲ": 299,
      "ç®Ģ": 300,
      "æ³ķ": 301,
      "åĴĮ": 302,
      "åģ": 303,
      "æĦ": 304,
      "æĹ": 305,
      "çĤ": 306,
      "éĥ": 307,
      "åĪ¶": 308,
      "åĪĹ": 309,
      "è¯ģ": 310,
      "è¯į": 311,
      "æľĢ": 312,
      "åĲĪ": 313,
      "ç½®": 314,
      "æĦı": 315,
      "çĤ¹": 316,
      "er": 317,
      "åĮ": 318,
      "æŀ": 319,
      "é¢": 320,
      "ŀĭ": 321,
      "å¹¶": 322,
      "è¾ĵ": 323,
      "±Ĥ": 324,
      "æĬ": 325,
      "ç¼": 326,
      "çł": 327,
      "éĶ": 328,
      "åħĪ": 329,
      "äºİ": 330,
      "å¤§": 331,
      "å¿«": 332,
      "æ¯Ķ": 333,
      "è¶Ĭ": 334,
      "æ¨¡å": 335,
      "çłģ": 336,
      "on": 337,
      "«ĺ": 338,
      "é«ĺ": 339,
      "ä¸ª": 340,
      "æĪĲ": 341,
      "è¿Ľ": 342,
      "æĸ¹": 343,
      "æŃ¥": 344,
      "éĹ®": 345,
      "éĢļä¿Ĺè§£éĩĬ": 346,
      "éªĮ": 347,
      "op": 348,
      "éĺ": 349,
      "éĻ": 350,
      "ä¸Ń": 351,
      "åı¯": 352,
      "åħ³": 353,
      "äºĮ": 354,
      "å¤į": 355,
      "æĿĥ": 356,
      "æ¨¡åŀĭ": 357,
      "åİ": 358,
      "ç§": 359,
      "ä½ľ": 360,
      "éĩı": 361,
      "åĲİ": 362,
      "ä¿Ŀ": 363,
      "æĶ¶": 364,
      "åĩº": 365,
      "çİĩ": 366,
      "éĥ¨": 367,
      "³å®ļ": 368,
      "¼Ķ": 369,
      "å¾": 370,
      "æĭ": 371,
      "æ¼Ķ": 372,
      "ç´": 373,
      "èĥ": 374,
      "Ł¥": 375,
      "ä¸į": 376,
      "åıĳ": 377,
      "ä»£": 378,
      "éĢŁ": 379,
      "åŃĺ": 380,
      "æĶ¹": 381,
      "æİĴ": 382,
      "åĽŀ": 383,
      "è´¨": 384,
      "æ³¨æĦı": 385,
      "é¢ĺ": 386,
      "æ¼Ķç¤º": 387,
      "èĥ½": 388,
      "åľ": 389,
      "æ¸": 390,
      "çĽ": 391,
      "èĩ": 392,
      "åĬĽ": 393,
      "åĬł": 394,
      "è¿°": 395,
      "ï¼īãĢĤ": 396,
      "ç¨³å®ļ": 397,
      "è¯¾åłĤç®Ģ": 398,
      "è®¡ç®Ĺ": 399,
      "åıĤæķ°": 400,
      "éªĮè¯ģ": 401,
      "ä»£çłģ": 402,
      "æ³¨æĦıåĬĽ": 403,
      "è¯¾åłĤç®Ģè¿°": 404,
      "CP": 405,
      "ar": 406,
      "is": 407,
      "tu": 408,
      "æŁ¥": 409,
      "çŃ": 410,
      "Ļ¨": 411,
      "åĬ¡": 412,
      "åĬ¨": 413,
      "è§Ĥ": 414,
      "æĹ¶": 415,
      "æŀĦ": 416,
      "éĹ®é¢ĺ": 417,
      "æĿĥéĩį": 418,
      "en": 419,
      "or": 420,
      "¨çĲĨ": 421,
      "»º": 422,
      "å»º": 423,
      "æµ": 424,
      "éķ": 425,
      "éĽ": 426,
      "ĵį": 427,
      "ä¸ĭ": 428,
      "æłĳ": 429,
      "æİ¨çĲĨ": 430,
      "è¡¨": 431,
      "éĽĨ": 432,
      "top": 433,
      "³»": 434,
      "å·": 435,
      "å½": 436,
      "æĮ": 437,
      "çº": 438,
      "ç³»": 439,
      "è½": 440,
      "é¡": 441,
      "éħ": 442,
      "éĢĤ": 443,
      "ä½İ": 444,
      "ç»ĵ": 445,
      "åºıåĪĹ": 446,
      "å¼ı": 447,
      "ä½įç½®": 448,
      "åģļ": 449,
      "å¿«éĢŁ": 450,
      "æ¯Ķå¦Ĥ": 451,
      "åľ¨": 452,
      "éħį": 453,
      "in": 454,
      "le": 455,
      "re": 456,
      "ºå®ļ": 457,
      "åĻ¨": 458,
      "æ±Ĥ": 459,
      "çķ": 460,
      "åĪ«": 461,
      "åĪ°": 462,
      "æķĪ": 463,
      "åħ¨": 464,
      "åħ±": 465,
      "äº«": 466,
      "å¤±": 467,
      "æłĩ": 468,
      "åĽºå®ļ": 469,
      "ä¸ºä»Ģä¹Ī": 470,
      "ç®Ĺæ³ķ": 471,
      "ä¼ĺ": 472,
      "è¾ĵåĩº": 473,
      "æĬĬ": 474,
      "è¿ĽåĪ¶": 475,
      "ç§į": 476,
      "tup": 477,
      "00": 478,
      "HT": 479,
      "TP": 480,
      "it": 481,
      "th": 482,
      "ä¾": 483,
      "ç«": 484,
      "çī": 485,
      "éļ": 486,
      "éĿ": 487,
      "ä¸Ĭ": 488,
      "åıª": 489,
      "åıĺ": 490,
      "æľº": 491,
      "äº¤": 492,
      "åĨħ": 493,
      "åįĩ": 494,
      "çİ°": 495,
      "åĮº": 496,
      "åĮĸ": 497,
      "éĻ¤": 498,
      "åħ³ç³»": 499,
      "æİĴåºı": 500,
      "CPU": 501,
      "ist": 502,
      "éķ¿": 503,
      "åħ±äº«": 504,
      "tuple": 505,
      "HTTP": 506,
      "çī¹": 507,
      "Py": 508,
      "å¢": 509,
      "å¸": 510,
      "åĢ": 511,
      "åī": 512,
      "å±Ĥ": 513,
      "æģ": 514,
      "èµ": 515,
      "éģ": 516,
      "ï¼Ľ": 517,
      "çĶŁ": 518,
      "åıī": 519,
      "éĢī": 520,
      "æľį": 521,
      "æĢģ": 522,
      "åºĶ": 523,
      "å¤Ħ": 524,
      "å®ŀ": 525,
      "åŃ¦": 526,
      "æİ¥": 527,
      "åĨį": 528,
      "æľīä»Ģä¹Ī": 529,
      "å¼Ģ": 530,
      "æıĲåįĩ": 531,
      "è¯¾åłĤæ¼Ķç¤º": 532,
      "éĶģ": 533,
      "äºĮåıī": 534,
      "ä¿Ŀçķ": 535,
      "æ¸©": 536,
      "èĩ´": 537,
      "arg": 538,
      "æĮģ": 539,
      "thon": 540,
      "Python": 541,
      "ä¿ĿçķĻ": 542,
      "100": 543,
      "de": 544,
      "list": 545,
      "¡®": 546,
      "¿çĶ¨": 547,
      "âĨ": 548,
      "å¥": 549,
      "åĿ": 550,
      "æ¦Ĥ": 551,
      "çľ": 552,
      "ç¡®": 553,
      "é¦": 554,
      "Łå¤±": 555,
      "æķĽ": 556,
      "ä½¿çĶ¨": 557,
      "è®¾": 558,
      "å¤ļ": 559,
      "ç»Ħ": 560,
      "å°ĳ": 561,
      "åĩı": 562,
      "æįŁå¤±": 563,
      "åĨĻ": 564,
      "å°ıæ¨¡åŀĭ": 565,
      "åįķ": 566,
      "è¡Į": 567,
      "è¾ĵåħ¥": 568,
      "éĺŁ": 569,
      "ä¸Ńå¦Ĥä½ķ": 570,
      "åİŁ": 571,
      "æĶ¶æķĽ": 572,
      "æĭ©": 573,
      "éĢĤåĲĪ": 574,
      "éĿ¢": 575,
      "åĮºåĪ«": 576,
      "å¢ŀ": 577,
      "éĢīæĭ©": 578,
      "args": 579,
      "âĨĴ": 580,
      "()": 581,
      "50": 582,
      "ET": 583,
      "ST": 584,
      "at": 585,
      "ed": 586,
      "ion": 587,
      "±¡": 588,
      "·æ±Ĥ": 589,
      "½æķ°": 590,
      "ÃĹ": 591,
      "æ£": 592,
      "æ°": 593,
      "æĵį": 594,
      "è·": 595,
      "è±¡": 596,
      "ĵåŃĺ": 597,
      "ĸè¯į": 598,
      "æĺİ": 599,
      "ä»¥": 600,
      "è¯ķ": 601,
      "è¯·æ±Ĥ": 602,
      "æĺ¯ä¸Ģ": 603,
      "éĢĢ": 604,
      "è®©": 605,
      "è®®": 606,
      "å®¹": 607,
      "æł¹": 608,
      "åĩ½æķ°": 609,
      "æį¢": 610,
      "ä¸Ģèĩ´": 611,
      "å¿ĥ": 612,
      "éĩįå¤į": 613,
      "æıĲé«ĺ": 614,
      "æıĲäº¤": 615,
      "ç¼©": 616,
      "ç¼ĵåŃĺ": 617,
      "æĸ¹æ³ķ": 618,
      "äºĮè¿ĽåĪ¶": 619,
      "ç´¯": 620,
      "è´¨éĩı": 621,
      "çĽ¸": 622,
      "çŃī": 623,
      "ent": 624,
      "ç»ĵæŀĦ": 625,
      "éħįç½®": 626,
      "ä¾¿": 627,
      "åĨħåŃĺ": 628,
      "åīį": 629,
      "çĶŁæĪĲ": 630,
      "åºĶçĶ¨": 631,
      "å¥½": 632,
      "æĵįä½ľ": 633,
      "ä¸Ģèĩ´æĢ§": 634,
      "PE": 635,
      "Ro": 636,
      "ea": 637,
      "ue": 638,
      "¥åŃĲ": 639,
      "¬¡": 640,
      "·è´": 641,
      "å±": 642,
      "åĵį": 643,
      "æĥ": 644,
      "æĲ": 645,
      "æ¬¡": 646,
      "è°": 647,
      "èİ": 648,
      "ĢæŁ¥": 649,
      "Ľå»º": 650,
      "ľç´": 651,
      "çĶ¨äºİ": 652,
      "æĪĸè¯į": 653,
      "åĪĻ": 654,
      "åĪł": 655,
      "åĪĽå»º": 656,
      "åı¥åŃĲ": 657,
      "è¿ĺ": 658,
      "çļĦä½ľ": 659,
      "äºĭ": 660,
      "èĢ¦": 661,
      "åŃĹ": 662,
      "å°Ĩ": 663,
      "æł¸": 664,
      "ä¸İè¾ĵåĩº": 665,
      "æĶ¾": 666,
      "è§£èĢ¦": 667,
      "åįı": 668,
      "åłĨ": 669,
      "ç½²": 670,
      "æĸ°": 671,
      "è®Ńç»ĥä¸İ": 672,
      "æĿĤ": 673,
      "å¯¹è±¡": 674,
      "æĽ´å¿«": 675,
      "æŃ¢": 676,
      "éĹ´": 677,
      "æķ°æį®ä¸İ": 678,
      "æ¯ı": 679,
      "æ³¨åħ¥": 680,
      "æľĢå°ı": 681,
      "å¹¶åģļ": 682,
      "æĬĢ": 683,
      "éĶ®": 684,
      "æŃ¥æķ°": 685,
      "åħ³éĶ®": 686,
      "éĥ¨ç½²": 687,
      "æĭ·è´": 688,
      "è´¨æķ°": 689,
      "èĩª": 690,
      "åıĤæķ°å¹¶": 691,
      "è§ĤéĶģ": 692,
      "orm": 693,
      "è½¬": 694,
      "æķĪçİĩ": 695,
      "æłĩçĤ¹": 696,
      "ä¸ºä»Ģä¹Īè¦ģ": 697,
      "ç§įåŃĲ": 698,
      "ç«ĭ": 699,
      "å±ĤæĿĥéĩį": 700,
      "æģ¯": 701,
      "æľįåĬ¡": 702,
      "äºĮåıīæłĳ": 703,
      "æ¸©åº¦": 704,
      "åĿĩ": 705,
      "æ¦Ĥçİĩ": 706,
      "æ£ĢæŁ¥": 707,
      "æ°´": 708,
      "RoPE": 709,
      "æĲľç´": 710,
      "èİ·": 711,
      "çļĦä½ľçĶ¨": 712,
      "æĭ·è´Ŀ": 713,
      "æĲľç´¢": 714,
      ")ãĢĤ": 715,
      ")ï¼Į": 716,
      "AP": 717,
      "CI": 718,
      "Git": 719,
      "Norm": 720,
      "QL": 721,
      "SQL": 722,
      "ch": 723,
      "ic": 724,
      "ip": 725,
      "lo": 726,
      "oc": 727,
      "ss": 728,
      "¡çĲĨ": 729,
      "¦»": 730,
      "®æĶ¹": 731,
      "±»": 732,
      "¶æĢģ": 733,
      "¹å¤§": 734,
      "»åĩ": 735,
      "¿åħ": 736,
      "¿éĹ®": 737,
      "æ·": 738,
      "æº": 739,
      "çĥ": 740,
      "çĬ": 741,
      "çĭ": 742,
      "ç¦»": 743,
      "ç±»": 744,
      "ĭè¯ķ": 745,
      "Ķç¦»": 746,
      "łçĶ¨": 747,
      "łçİĩ": 748,
      "ä¸»": 749,
      "çĶ±": 750,
      "æīĢ": 751,
      "æī¹å¤§": 752,
      "åı³": 753,
      "åıĸ": 754,
      "ä»»": 755,
      "è¯»": 756,
      "ä¹łçİĩ": 757,
      "æľ¬": 758,
      "æľŁ": 759,
      "è®¿éĹ®": 760,
      "éĩĩ": 761,
      "ç»Ļ": 762,
      "ç»Ł": 763,
      "ä¿®æĶ¹": 764,
      "ç®¡çĲĨ": 765,
      "æł·": 766,
      "æĶ»åĩ": 767,
      "æİ§": 768,
      "å¯Ĩ": 769,
      "å¯Ł": 770,
      "åĩĨ": 771,
      "ä¸Ģä¸ª": 772,
      "éĢļè¿ĩ": 773,
      "åįłçĶ¨": 774,
      "éĩįçĤ¹": 775,
      "çĲĨè§£": 776,
      "å¹³": 777,
      "è¾¾": 778,
      "å¯¹ä½įç½®": 779,
      "æıĲç¤º": 780,
      "æĽ´éĢļä¿Ĺ": 781,
      "æĽ´æĸ°": 782,
      "è¶ħ": 783,
      "åıĤèĢĥ": 784,
      "ç®Ģåįķ": 785,
      "æĹł": 786,
      "éĥ½": 787,
      "åĲĪå¹¶": 788,
      "éĺ²": 789,
      "éĻĲ": 790,
      "åı¯åıĺ": 791,
      "éĥ¨åĪĨ": 792,
      "å¾®": 793,
      "æĶ¹åĨĻ": 794,
      "åĽŀæĶ¶": 795,
      "æ¸ħ": 796,
      "éªĮè¯ģæįŁå¤±": 797,
      "çŃĶ": 798,
      "è§Ĥå¯Ł": 799,
      "æµĭè¯ķ": 800,
      "ä¸ĭéĿ¢": 801,
      "è¡¨ç¤º": 802,
      "éĽĨåĲĪ": 803,
      "å·¦": 804,
      "çº§": 805,
      "çº¿": 806,
      "ing": 807,
      "ä¼ĺåħĪ": 808,
      "æĬĬä¸ĭéĿ¢": 809,
      "éļĶç¦»": 810,
      "éģ¿åħ": 811,
      "åŃ¦ä¹łçİĩ": 812,
      "çľĭ": 813,
      "éĺŁåĪĹ": 814,
      "åİŁåĪĻ": 815,
      "è·¯": 816,
      "è®©æ¨¡åŀĭ": 817,
      "å®¹åĻ¨": 818,
      "çĽ¸å¯¹ä½įç½®": 819,
      "åı¥åŃĲæĶ¹åĨĻ": 820,
      "äºĭåĬ¡": 821,
      "èİ·åıĸ": 822,
      "çĥŃ": 823,
      "çĬ¶æĢģ": 824,
      "çĭ¬": 825,
      "æī¹å¤§å°ı": 826,
      "æĶ»åĩ»": 827,
      "éĩįçĤ¹åıĤèĢĥ": 828,
      "æıĲç¤ºè¯į": 829,
      "æĬĬä¸ĭéĿ¢åı¥åŃĲæĶ¹åĨĻ": 830,
      "éģ¿åħį": 831,
      "åŃ¦ä¹łçİĩä¸İ": 832,
      "æĬĬä¸ĭéĿ¢åı¥åŃĲæĶ¹åĨĻæĽ´éĢļä¿Ĺ": 833,
      "..": 834,
      "11": 835,
      "Cl": 836,
      "GET": 837,
      "MS": 838,
      "OST": 839,
      "POST": 840,
      "Red": 841,
      "RMS": 842,
      "cop": 843,
      "ie": 844,
      "ient": 845,
      "kw": 846,
      "ub": 847,
      "us": 848,
      "¢¯": 849,
      "£ħ": 850,
      "¯åĬ¨": 851,
      "±åĵį": 852,
      "¶æķ°": 853,
      "¸é¦": 854,
      "âĢ": 855,
      "åĥ": 856,
      "æ¡": 857,
      "æħ": 858,
      "æ¢¯": 859,
      "çŁ": 860,
      "èĴ": 861,
      "è£ħ": 862,
      "Ġf": 863,
      "ģè¿ĽåĪ¶": 864,
      "ĦçĥŃ": 865,
      "ĭç¼©": 866,
      "ķçĶ¨": 867,
      "Ļå¼": 868,
      "ä¸¤": 869,
      "ä¸ī": 870,
      "åĬŁ": 871,
      "è¿ŀ": 872,
      "è¯Ħ": 873,
      "åħĥ": 874,
      "æĺ¯ä»Ģä¹Ī": 875,
      "æĺ¯åĲ": 876,
      "ä½Ļå¼": 877,
      "æľ¯": 878,
      "çļĦåĮºåĪ«": 879,
      "çļĦçĲĨè§£": 880,
      "åºĵ": 881,
      "å¤ĩ": 882,
      "ä¹Īåħ¨": 883,
      "åĲ¯åĬ¨": 884,
      "æłĪ": 885,
      "æĶ¯": 886,
      "ä¸ĢæŃ¥": 887,
      "åįģè¿ĽåĪ¶": 888,
      "åĪĨéħį": 889,
      "æĸĩ": 890,
      "å¼ķçĶ¨": 891,
      "å¯¹æ¯Ķ": 892,
      "å¯¹åºıåĪĹ": 893,
      "è®¡æķ°": 894,
      "å¦Ĥä½ķè®¾": 895,
      "åº¦ç´¯": 896,
      "è¦ģä¹Īåħ¨": 897,
      "ä¼ļ": 898,
      "ä¼ł": 899,
      "éª¤": 900,
      "æľĢåĲİ": 901,
      "æľĢä¼ĺ": 902,
      "æŀľ": 903,
      "é¢ĦçĥŃ": 904,
      "ç¼ĸ": 905,
      "åħĪçľĭ": 906,
      "æŃ¥éª¤": 907,
      "åı¯å¤į": 908,
      "åı¯ä»¥": 909,
      "å¤įæĿĤ": 910,
      "åİĭç¼©": 911,
      "ç§¯": 912,
      "ä½ľä¸º": 913,
      "éĩıåĮĸ": 914,
      "å¾Ħ": 915,
      "å¾Ĺ": 916,
      "æ³¨æĦıåĬĽæľº": 917,
      "æ³¨æĦıåĬĽéĢļè¿ĩ": 918,
      "åĬ¨æĢģ": 919,
      "æĿĥéĩįè®©æ¨¡åŀĭ": 920,
      "å½Ĵ": 921,
      "å½±åĵį": 922,
      "è½»": 923,
      "ç»ĵæŀľ": 924,
      "ç«Ļ": 925,
      "éļı": 926,
      "åħ³ç³»çļĦçĲĨè§£": 927,
      "CPUä¸Ĭ": 928,
      "çī¹çĤ¹": 929,
      "å¸¸": 930,
      "å¸ĥ": 931,
      "åĢº": 932,
      "åĢ¼": 933,
      "å¤ĦçĲĨ": 934,
      "å¼Ģåıĳ": 935,
      "æıĲåįĩå¯¹åºıåĪĹ": 936,
      "Pythonä¸Ń": 937,
      "é¦ĸ": 938,
      "åĩıå°ĳ": 939,
      "ä¾¿äºİ": 940,
      "å¥½å¤Ħ": 941,
      "å±Ģ": 942,
      "è°ĥ": 943,
      "åĪłéĻ¤": 944,
      "æł¸å¿ĥ": 945,
      "åįıè®®": 946,
      "æĬĢæľ¯": 947,
      "åħ³éĶ®ä½įç½®": 948,
      "èĩªåĬ¨": 949,
      "æ·±": 950,
      "æīĢæľī": 951,
      "æİ§åĪ¶": 952,
      "åı¯åıĺçļĦ": 953,
      "è·¯å¾Ħ": 954,
      "çĭ¬ç«ĭ": 955,
      "éĩįçĤ¹åıĤèĢĥåħ³éĶ®ä½įç½®": 956,
      "Client": 957,
      "Redis": 958,
      "RMSNorm": 959,
      "copy": 960,
      "kwargs": 961,
      "¸é¦ı": 962,
      "åĥı": 963,
      "æħ¢": 964,
      "æ¢¯åº¦ç´¯": 965,
      "èĴ¸é¦ı": 966,
      "æĺ¯åĲ¦": 967,
      "ä½Ļå¼¦": 968,
      "åĪĨéħįæĿĥéĩįè®©æ¨¡åŀĭ": 969,
      "åı¯å¤įçİ°": 970,
      "å¤įæĿĤåº¦": 971,
      "æ³¨æĦıåĬĽæľºåĪ¶": 972,
      "æ³¨æĦıåĬĽéĢļè¿ĩåĪĨéħįæĿĥéĩįè®©æ¨¡åŀĭ": 973,
      "åĬ¨æĢģéĩıåĮĸ": 974,
      "æıĲåįĩå¯¹åºıåĪĹåħ³ç³»çļĦçĲĨè§£": 975,
      "æ¢¯åº¦ç´¯ç§¯": 976,
      "æ³¨æĦıåĬĽéĢļè¿ĩåĪĨéħįæĿĥéĩįè®©æ¨¡åŀĭéĩįçĤ¹åıĤèĢĥåħ³éĶ®ä½įç½®": 977,
      ")ãĢģ": 978,
      "**": 979,
      "2Â": 980,
      "=(": 981,
      "CD": 982,
      "CS": 983,
      "Con": 984,
      "DE": 985,
      "FO": 986,
      "IFO": 987,
      "LET": 988,
      "PU": 989,
      "RF": 990,
      "SO": 991,
      "SS": 992,
      "Ser": 993,
      "TCP": 994,
      "as": 995,
      "ain": 996,
      "cr": 997,
      "cing": 998,
      "ess": 999,
      "fu": 1000,
      "fea": 1001,
      "kä»": 1002,
      "kä¸İ": 1003,
      "kä¸ª": 1004,
      "main": 1005,
      "nc": 1006,
      "ol": 1007,
      "pä¿ĿçķĻ": 1008,
      "péĩĩ": 1009,
      "rit": 1010,
      "si": 1011,
      "st": 1012,
      "tea": 1013,
      "ver": 1014,
      "vie": 1015,
      "¡æģ¯": 1016,
      "¤æĸ": 1017,
      "©ç½": 1018,
      "©åŃĲ": 1019,
      "ªģ": 1020,
      "ªå¿ĥ": 1021,
      "®æłĩ": 1022,
      "²»": 1023,
      "²ç": 1024,
      "²è§ĤéĶģ": 1025,
      "µĮ": 1026,
      "¶ä»": 1027,
      "¶æĦı": 1028,
      "ºåºı": 1029,
      "åŀĭ": 1030,
      "åµĮ": 1031,
      "æ»": 1032,
      "æĤ": 1033,
      "æĻ": 1034,
      "æ²»": 1035,
      "çĦ": 1036,
      "çĪ": 1037,
      "èĬ": 1038,
      "èĮ": 1039,
      "éĤ": 1040,
      "éľ": 1041,
      "Ģè¦ģ": 1042,
      "ģç¨ĭ": 1043,
      "ĤçĤ¹": 1044,
      "Ħæº": 1045,
      "ħè¦ģ": 1046,
      "ħä¿ĿçķĻ": 1047,
      "ħæĭ·è´Ŀ": 1048,
      "ĩè®Ńç»ĥä¸İ": 1049,
      "Īéĥ¨åĪĨ": 1050,
      "ĪåĢ¼": 1051,
      "įåİ": 1052,
      "ĲæŃ¥": 1053,
      "Ĳè§ĤéĶģ": 1054,
      "ĻåŃ¦": 1055,
      "ļä¸İ": 1056,
      "ľæŃ¢": 1057,
      "ľåĥı": 1058,
      "Ŀèµ": 1059,
      "Łå®ŀ": 1060,
      "Ńæ³ķ": 1061,
      "ä¸Ķ": 1062,
      "çĶ¨çľ": 1063,
      "åĬ¡å": 1064,
      "æī©": 1065,
      "æī¾": 1066,
      "åĪ¤æĸ": 1067,
      "åıĮ": 1068,
      "æĺ¾": 1069,
      "åĬ©äºİ": 1070,
      "æķ£": 1071,
      "æķ´": 1072,
      "æķĻåŃ¦": 1073,
      "è¿ĳ": 1074,
      "è¯Ńæ³ķ": 1075,
      "åħ¶ä»": 1076,
      "æĺ¯ä¸į": 1077,
      "æĺ¯è´¨æķ°": 1078,
      "éĢĴ": 1079,
      "éĢĲæŃ¥": 1080,
      "ä¹¦": 1081,
      "ä¹ħ": 1082,
      "ä¹Ĳè§ĤéĶģ": 1083,
      "æķ°åŃĹ": 1084,
      "çļĦæķ°æį®": 1085,
      "çļĦä»£çłģ": 1086,
      "çļĦè¯¾åłĤæ¼Ķç¤º": 1087,
      "çļĦä¸»": 1088,
      "çļĦéĽĨåĲĪ": 1089,
      "çļĦkä¸ª": 1090,
      "äºĨ": 1091,
      "ç»ĩè®Ńç»ĥä¸İ": 1092,
      "èĢĮ": 1093,
      "åĲĮ": 1094,
      "åĲį": 1095,
      "åĲĳ": 1096,
      "åŃ©åŃĲ": 1097,
      "ä¿¡æģ¯": 1098,
      "å°ģ": 1099,
      "æł¼": 1100,
      "ä¸İåıĤæķ°": 1101,
      "ä¸İè¯¾åłĤæ¼Ķç¤º": 1102,
      "ä¸İæķĪçİĩ": 1103,
      "ä¸İè¶ħ": 1104,
      "å¯¼": 1105,
      "ä»Ģä¹Īæĺ¯HTTP": 1106,
      "ä»Ģä¹Īæĺ¯tea": 1107,
      "å®ļä½į": 1108,
      "å®ļæľŁ": 1109,
      "ä¸Ģä½į": 1110,
      "ä¸Ģç®¡çĲĨ": 1111,
      "å°ıæķ°æį®": 1112,
      "åºıåħ³ç³»": 1113,
      "å¿ħè¦ģ": 1114,
      "åĪĨè¯į": 1115,
      "åĪĨæĶ¯": 1116,
      "åĪĨå¸ĥ": 1117,
      "åĪĨæ²»": 1118,
      "æľīåĬ©äºİ": 1119,
      "è´ªå¿ĥ": 1120,
      "çİ¯": 1121,
      "è®Ńç»ĥç¨³å®ļ": 1122,
      "è®Ńç»ĥæĹ¶": 1123,
      "è®Ńç»ĥéĹ®é¢ĺ": 1124,
      "è®Ńç»ĥä¸Ńå¦Ĥä½ķ": 1125,
      "è®Ńç»ĥæŃ¥æķ°": 1126,
      "è®Ńç»ĥæĺ¯åĲ¦": 1127,
      "å¯¹çĶŁæĪĲ": 1128,
      "å¯¹çŃĶ": 1129,
      "éĢļä¿¡": 1130,
      "æĢ§èĥ½": 1131,
      "æĢ§å±ĤæĿĥéĩį": 1132,
      "æĽ´å°ı": 1133,
      "æĽ´æį¢": 1134,
      "è¯¾åłĤä¸Ńå¦Ĥä½ķ": 1135,
      "ä¸ºä½İ": 1136,
      "è®¡æ¦Ĥçİĩ": 1137,
      "è§£éĩĬRoPE": 1138,
      "è§£éĩĬæ³¨æĦıåĬĽæľºåĪ¶": 1139,
      "å¦Ĥä½ķéªĮè¯ģ": 1140,
      "å¦Ĥä½ķç»Ħ": 1141,
      "å¦Ĥä½ķæıĲé«ĺ": 1142,
      "å¦Ĥä½ķéģ¿åħį": 1143,
      "æķ°æį®æĪĸè¯į": 1144,
      "æķ°æį®åºĵ": 1145,
      "åº¦ä¼ĺåħĪ": 1146,
      "è¦ģè§£éĩĬæ³¨æĦıåĬĽæľºåĪ¶": 1147,
      "åħ¥ä¸İè¾ĵåĩº": 1148,
      "åħ¥è½»": 1149,
      "è¡¡": 1150,
      "æ¨¡": 1151,
      "åıĤçĶ±": 1152,
      "ä½įåºıåħ³ç³»": 1153,
      "ç®Ģè¦ģè§£éĩĬæ³¨æĦıåĬĽæľºåĪ¶": 1154,
      "åģ¶æķ°": 1155,
      "åģľæŃ¢": 1156,
      "è¯ģç»ĵæŀľ": 1157,
      "è¯ģä¹¦": 1158,
      "æľĢé«ĺ": 1159,
      "éĶĻ": 1160,
      "æ¯Ķçī¹": 1161,
      "è¶Ĭé«ĺ": 1162,
      "è¶Ĭåıĳ": 1163,
      "è¶Ĭä½İ": 1164,
      "è¶Ĭéķ¿": 1165,
      "è¶Ĭç¡®": 1166,
      "é«ĺè´¨éĩı": 1167,
      "æĪĲåĬŁ": 1168,
      "è¿Ľè¡Į": 1169,
      "æĸ¹å¼ı": 1170,
      "æĸ¹ä¾¿": 1171,
      "éªĮä¸İè¯¾åłĤæ¼Ķç¤º": 1172,
      "éĺĪåĢ¼": 1173,
      "éĻį": 1174,
      "åĲİå¤ĦçĲĨ": 1175,
      "ä¿ĿæĮģ": 1176,
      "ä¿Ŀè¯ģç»ĵæŀľ": 1177,
      "ç´ł": 1178,
      "ä¸įæĶ¹": 1179,
      "åıĳçİ°": 1180,
      "éĢŁåº¦": 1181,
      "åĽŀéĢĢ": 1182,
      "æ¼Ķç¤ºä¸İåıĤæķ°": 1183,
      "èĥ½æıĲé«ĺ": 1184,
      "çĽ®æłĩ": 1185,
      "åĬłç®Ģåįķ": 1186,
      "åĬłåħ¥è½»": 1187,
      "ç¨³å®ļæĢ§": 1188,
      "ç¨³å®ļæİ¨çĲĨ": 1189,
      "ç¨³å®ļè¾ĵåĩº": 1190,
      "ç¨³å®ļæĶ¶æķĽ": 1191,
      "è®¡ç®ĹæįŁå¤±": 1192,
      "art": 1193,
      "ture": 1194,
      "æŁ¥åŃ¦ä¹łçİĩä¸İ": 1195,
      "è§Ĥæ£ĢæŁ¥": 1196,
      "æĹ¶åĩı": 1197,
      "æŀĦå»º": 1198,
      "æĿĥéĩįåĩıå°ĳ": 1199,
      "orcing": 1200,
      "å»ºè®®": 1201,
      "æµģç¨ĭ": 1202,
      "æµħæĭ·è´Ŀ": 1203,
      "éķľåĥı": 1204,
      "ä¸ĭä¸ĢæŃ¥": 1205,
      "æİ¨çĲĨè§£èĢ¦": 1206,
      "æİ¨çĲĨæĽ´å¿«": 1207,
      "æİ¨çĲĨçļĦä»£çłģ": 1208,
      "è¡¨ä¸įæĶ¹": 1209,
      "éĽĨçļĦä¸»": 1210,
      "å½ķ": 1211,
      "é¡¶": 1212,
      "é¡¹": 1213,
      "é¡ºåºı": 1214,
      "ä½İæ¸©": 1215,
      "åºıåĪĹè¶Ĭéķ¿": 1216,
      "åģļå¿«éĢŁ": 1217,
      "å¿«éĢŁå®ŀ": 1218,
      "å¿«éĢŁå®ļä½į": 1219,
      "åľ¨è®Ńç»ĥæĹ¶": 1220,
      "åħ¨å±Ģ": 1221,
      "åĽºå®ļç§įåŃĲ": 1222,
      "åĽºå®ļæıĲç¤ºè¯į": 1223,
      "åĽºå®ļéļı": 1224,
      "ä¸ºä»Ģä¹Īåħ±äº«": 1225,
      "æĬĬçº¿": 1226,
      "æĬĬçĽ¸å¯¹ä½įç½®": 1227,
      "ä¾Ŀèµ": 1228,
      "åıªæľī": 1229,
      "åıªå¯¹çŃĶ": 1230,
      "åıĺæħ¢": 1231,
      "æľºç§įåŃĲ": 1232,
      "CPUæ¼Ķç¤º": 1233,
      "éķ¿åº¦": 1234,
      "åħ±äº«æĿĥéĩįåĩıå°ĳ": 1235,
      "æģ¶æĦı": 1236,
      "èµĦæº": 1237,
      "éģįåİ": 1238,
      "æľįåĬ¡å": 1239,
      "å®ŀçİ°": 1240,
      "æİ¥æĶ¶": 1241,
      "åĨįæŁ¥åŃ¦ä¹łçİĩä¸İ": 1242,
      "æľīä»Ģä¹ĪåĮºåĪ«": 1243,
      "æľīä»Ģä¹Īå½±åĵį": 1244,
      "æľīä»Ģä¹Īå¥½å¤Ħ": 1245,
      "è¯¾åłĤæ¼Ķç¤ºå»ºè®®": 1246,
      "äºĮåıīæĲľç´¢": 1247,
      "æĮģä¹ħ": 1248,
      "ä¿ĿçķĻä½įåºıåħ³ç³»": 1249,
      "å°ıæ¨¡åŀĭçļĦè¯¾åłĤæ¼Ķç¤º": 1250,
      "éĢĤåĲĪCPUæ¼Ķç¤º": 1251,
      "éĢīæĭ©ç¨³å®ļæİ¨çĲĨ": 1252,
      "ation": 1253,
      "æĺİæĺ¾": 1254,
      "æĺ¯ä¸Ģç§į": 1255,
      "éĩįå¤įçĶŁæĪĲ": 1256,
      "éĩįå¤įæĥ": 1257,
      "ç´¯è®¡æ¦Ĥçİĩ": 1258,
      "çŃīäºİ": 1259,
      "éħįç½®ç»Ł": 1260,
      "ueue": 1261,
      "ä¸İè¾ĵåĩºæ¸ħ": 1262,
      "è®Ńç»ĥä¸İéªĮè¯ģæįŁå¤±": 1263,
      "æķ°æį®ä¸İéħįç½®": 1264,
      "æķ°æį®ä¸İåĪĨè¯į": 1265,
      "æ¯ıä¸ª": 1266,
      "æ³¨åħ¥æ³¨æĦıåĬĽ": 1267,
      "å¹¶åģļé¦ĸ": 1268,
      "å¹¶åģļåĽºå®ļæıĲç¤ºè¯į": 1269,
      "æŃ¥æķ°åģļå¿«éĢŁ": 1270,
      "åıĤæķ°å¹¶ä¿ĿæĮģ": 1271,
      "åıĤæķ°å¹¶åĬłç®Ģåįķ": 1272,
      "æłĩçĤ¹æĪĸè¯į": 1273,
      "æłĩçĤ¹åĽŀéĢĢ": 1274,
      "ä¸ºä»Ģä¹Īè¦ģè§£èĢ¦": 1275,
      "ä¸ºä»Ģä¹Īè¦ģåĽºå®ļéļı": 1276,
      "å±ĤæĿĥéĩįèĥ½æıĲé«ĺ": 1277,
      "æ¸©åº¦å¯¹çĶŁæĪĲ": 1278,
      "æ¸©åº¦è¶Ĭé«ĺ": 1279,
      "æ¦ĤçİĩæľĢé«ĺ": 1280,
      "cher": 1281,
      "ipt": 1282,
      "ock": 1283,
      "ä»»åĬ¡": 1284,
      "æł·æľīä»Ģä¹ĪåĮºåĪ«": 1285,
      "åĩĨå¤ĩ": 1286,
      "åįłçĶ¨æĽ´å°ı": 1287,
      "è¾¾éĺĪåĢ¼": 1288,
      "æĹłçĬ¶æĢģ": 1289,
      "éĺ²èĮ": 1290,
      "å¾®éĩįå¤įæĥ": 1291,
      "è§Ĥå¯Łè®Ńç»ĥä¸İéªĮè¯ģæįŁå¤±": 1292,
      "è¡¨ç¤ºä¸Ģèĩ´æĢ§": 1293,
      "æ¡Īéĥ¨åĪĨ": 1294,
      "çŁŃ": 1295,
      "Ġforcing": 1296,
      "ä¸¤ä¸ª": 1297,
      "ä¸īæ¬¡": 1298,
      "åħĥç´ł": 1299,
      "æľĢåĲİä¸Ģä½į": 1300,
      "ç¼ĸçłģ": 1301,
      "åħĪçľĭæķ°æį®ä¸İéħįç½®": 1302,
      "åİĭç¼©ä¸ºä½İ": 1303,
      "ä½ľä¸ºä¸ĭä¸ĢæŃ¥": 1304,
      "å¾ĹåĪ°": 1305,
      "å¸¸çĶ¨": 1306,
      "ä¾¿äºİå¿«éĢŁå®ŀ": 1307,
      "è°ĥåº¦": 1308,
      "æ·±æĭ·è´Ŀ": 1309,
      "æİ§åĪ¶è®Ńç»ĥæŃ¥æķ°": 1310,
      "è·¯å¾Ħä¸İè¶ħ": 1311,
      "åĬ¨æĢģéĩıåĮĸæľīä»Ģä¹Īå¥½å¤Ħ": 1312,
      "CSRF": 1313,
      "DELET": 1314,
      "PUT": 1315,
      "cript": 1316,
      "feature": 1317,
      "kä»ħä¿ĿçķĻ": 1318,
      "kä¸İtop": 1319,
      "pä¿ĿçķĻç´¯è®¡æ¦Ĥçİĩ": 1320,
      "péĩĩæł·æľīä»Ģä¹ĪåĮºåĪ«": 1321,
      "view": 1322,
      "©ç½ļä¸İ": 1323,
      "åµĮåħ¥ä¸İè¾ĵåĩº": 1324,
      "æĤ²è§ĤéĶģ": 1325,
      "çĪ¶": 1326,
      "èĬĤçĤ¹": 1327,
      "éĤ»": 1328,
      "éľĢè¦ģ": 1329,
      "Łå®ŀçĽ®æłĩ": 1330,
      "çĶ¨çľŁå®ŀçĽ®æłĩ": 1331,
      "åĪ¤æĸŃ": 1332,
      "æķĻåŃ¦æ¼Ķç¤ºä¸İåıĤæķ°": 1333,
      "ç»ĩè®Ńç»ĥä¸İæİ¨çĲĨçļĦä»£çłģ": 1334,
      "ä¿¡æģ¯æ³¨åħ¥æ³¨æĦıåĬĽ": 1335,
      "ä¸İæķĪçİĩæıĲåįĩ": 1336,
      "ä»Ģä¹Īæĺ¯teacher": 1337,
      "å¿ħè¦ģæĹ¶åĩı": 1338,
      "åĪĨå¸ĥå¼ı": 1339,
      "æľīåĬ©äºİè®Ńç»ĥç¨³å®ļ": 1340,
      "è®Ńç»ĥä¸Ńå¦Ĥä½ķä½¿çĶ¨": 1341,
      "è®Ńç»ĥæĺ¯åĲ¦æĶ¶æķĽ": 1342,
      "æĢ§å±ĤæĿĥéĩįåİĭç¼©ä¸ºä½İ": 1343,
      "æĽ´æį¢æķ°æį®æĪĸè¯į": 1344,
      "è¯¾åłĤä¸Ńå¦Ĥä½ķå¿«éĢŁå®ļä½į": 1345,
      "å¦Ĥä½ķéªĮè¯ģè®Ńç»ĥæĺ¯åĲ¦æĶ¶æķĽ": 1346,
      "å¦Ĥä½ķç»Ħç»ĩè®Ńç»ĥä¸İæİ¨çĲĨçļĦä»£çłģ": 1347,
      "å¦Ĥä½ķæıĲé«ĺå°ıæ¨¡åŀĭçļĦè¯¾åłĤæ¼Ķç¤º": 1348,
      "å¦Ĥä½ķéģ¿åħįéĩįå¤įçĶŁæĪĲ": 1349,
      "åº¦ä¼ĺåħĪæĲľç´¢": 1350,
      "åıĤçĶ±éħįç½®ç»Ł": 1351,
      "ç®Ģè¦ģè§£éĩĬæ³¨æĦıåĬĽæľºåĪ¶çļĦä½ľçĶ¨": 1352,
      "åģľæŃ¢è¯į": 1353,
      "è¶Ĭåıĳæķ£": 1354,
      "è¶Ĭä½İè¶Ĭç¡®": 1355,
      "é«ĺè´¨éĩıå°ıæķ°æį®": 1356,
      "æĸ¹ä¾¿æķĻåŃ¦æ¼Ķç¤ºä¸İåıĤæķ°": 1357,
      "ä¿Ŀè¯ģç»ĵæŀľåı¯å¤įçİ°": 1358,
      "åĬłåħ¥è½»å¾®éĩįå¤įæĥ": 1359,
      "è¡¨ä¸įæĶ¹ä»£çłģ": 1360,
      "éĽĨçļĦä¸»è§Ĥæ£ĢæŁ¥": 1361,
      "ä½İæ¸©ç¨³å®ļè¾ĵåĩº": 1362,
      "åľ¨è®Ńç»ĥæĹ¶çĶ¨çľŁå®ŀçĽ®æłĩ": 1363,
      "ä¸ºä»Ģä¹Īåħ±äº«åµĮåħ¥ä¸İè¾ĵåĩº": 1364,
      "æĬĬçº¿æĢ§å±ĤæĿĥéĩįåİĭç¼©ä¸ºä½İ": 1365,
      "æĬĬçĽ¸å¯¹ä½įç½®ä¿¡æģ¯æ³¨åħ¥æ³¨æĦıåĬĽ": 1366,
      "ä¾Ŀèµĸ": 1367,
      "åıªå¯¹çŃĶæ¡Īéĥ¨åĪĨ": 1368,
      "åħ±äº«æĿĥéĩįåĩıå°ĳåıĤæķ°å¹¶ä¿ĿæĮģ": 1369,
      "èµĦæºĲ": 1370,
      "éģįåİĨ": 1371,
      "æľįåĬ¡åĻ¨": 1372,
      "åĨįæŁ¥åŃ¦ä¹łçİĩä¸İæī¹å¤§å°ı": 1373,
      "è¯¾åłĤæ¼Ķç¤ºå»ºè®®ä½İæ¸©ç¨³å®ļè¾ĵåĩº": 1374,
      "äºĮåıīæĲľç´¢æłĳ": 1375,
      "ä¿ĿçķĻä½įåºıåħ³ç³»ä¸Ķ": 1376,
      "éĢīæĭ©ç¨³å®ļæİ¨çĲĨåıĤæķ°å¹¶åĬłç®Ģåįķ": 1377,
      "ä¸İè¾ĵåĩºæ¸ħçĲĨ": 1378,
      "æķ°æį®ä¸İåĪĨè¯įä¸ºä»Ģä¹Īè¦ģè§£èĢ¦": 1379,
      "å¹¶åģļé¦ĸæłĩçĤ¹åĽŀéĢĢ": 1380,
      "å¹¶åģļåĽºå®ļæıĲç¤ºè¯įéĽĨçļĦä¸»è§Ĥæ£ĢæŁ¥": 1381,
      "æŃ¥æķ°åģļå¿«éĢŁéªĮè¯ģ": 1382,
      "ä¸ºä»Ģä¹Īè¦ģåĽºå®ļéļıæľºç§įåŃĲ": 1383,
      "å±ĤæĿĥéĩįèĥ½æıĲé«ĺæķĪçİĩ": 1384,
      "æ¸©åº¦å¯¹çĶŁæĪĲæľīä»Ģä¹Īå½±åĵį": 1385,
      "æ¸©åº¦è¶Ĭé«ĺè¶Ĭåıĳæķ£": 1386,
      "æ¦ĤçİĩæľĢé«ĺçļĦkä¸ª": 1387,
      "åĩĨå¤ĩé«ĺè´¨éĩıå°ıæķ°æį®": 1388,
      "è¾¾éĺĪåĢ¼çļĦéĽĨåĲĪ": 1389,
      "éĺ²èĮĥ": 1390,
      "è§Ĥå¯Łè®Ńç»ĥä¸İéªĮè¯ģæįŁå¤±å¹¶åģļåĽºå®ļæıĲç¤ºè¯įéĽĨçļĦä¸»è§Ĥæ£ĢæŁ¥": 1391,
      "ä½ľä¸ºä¸ĭä¸ĢæŃ¥è¾ĵåħ¥": 1392,
      "ä¾¿äºİå¿«éĢŁå®ŀéªĮä¸İè¯¾åłĤæ¼Ķç¤º": 1393,
      "è·¯å¾Ħä¸İè¶ħåıĤçĶ±éħįç½®ç»Ł": 1394,
      "DELETE": 1395,
      "kä»ħä¿ĿçķĻæ¦ĤçİĩæľĢé«ĺçļĦkä¸ª": 1396,
      "pä¿ĿçķĻç´¯è®¡æ¦Ĥçİĩè¾¾éĺĪåĢ¼çļĦéĽĨåĲĪ": 1397,
      "©ç½ļä¸İåģľæŃ¢è¯į": 1398,
      "å¿ħè¦ģæĹ¶åĩıæŃ¥æķ°åģļå¿«éĢŁéªĮè¯ģ": 1399,
      "æľīåĬ©äºİè®Ńç»ĥç¨³å®ļä¸İæķĪçİĩæıĲåįĩ": 1400,
      "æĽ´æį¢æķ°æį®æĪĸè¯įè¡¨ä¸įæĶ¹ä»£çłģ": 1401,
      "è¯¾åłĤä¸Ńå¦Ĥä½ķå¿«éĢŁå®ļä½įè®Ńç»ĥéĹ®é¢ĺ": 1402,
      "å¦Ĥä½ķç»Ħç»ĩè®Ńç»ĥä¸İæİ¨çĲĨçļĦä»£çłģç»ĵæŀĦ": 1403,
      "å¦Ĥä½ķæıĲé«ĺå°ıæ¨¡åŀĭçļĦè¯¾åłĤæ¼Ķç¤ºè´¨éĩı": 1404,
      "å¦Ĥä½ķéģ¿åħįéĩįå¤įçĶŁæĪĲæłĩçĤ¹æĪĸè¯į": 1405,
      "è¶Ĭä½İè¶Ĭç¡®å®ļ": 1406,
      "æĸ¹ä¾¿æķĻåŃ¦æ¼Ķç¤ºä¸İåıĤæķ°å¯¹æ¯Ķ": 1407,
      "åĬłåħ¥è½»å¾®éĩįå¤įæĥ©ç½ļä¸İåģľæŃ¢è¯į": 1408,
      "åľ¨è®Ńç»ĥæĹ¶çĶ¨çľŁå®ŀçĽ®æłĩä½ľä¸ºä¸ĭä¸ĢæŃ¥è¾ĵåħ¥": 1409,
      "ä¸ºä»Ģä¹Īåħ±äº«åµĮåħ¥ä¸İè¾ĵåĩºå±ĤæĿĥéĩįèĥ½æıĲé«ĺæķĪçİĩ": 1410,
      "æĬĬçº¿æĢ§å±ĤæĿĥéĩįåİĭç¼©ä¸ºä½İæ¯Ķçī¹": 1411,
      "åıªå¯¹çŃĶæ¡Īéĥ¨åĪĨè®¡ç®ĹæįŁå¤±": 1412,
      "åħ±äº«æĿĥéĩįåĩıå°ĳåıĤæķ°å¹¶ä¿ĿæĮģè¡¨ç¤ºä¸Ģèĩ´æĢ§": 1413,
      "éĢīæĭ©ç¨³å®ļæİ¨çĲĨåıĤæķ°å¹¶åĬłç®ĢåįķåĲİå¤ĦçĲĨ": 1414,
      "å¹¶åģļé¦ĸæłĩçĤ¹åĽŀéĢĢä¸İè¾ĵåĩºæ¸ħçĲĨ": 1415,
      "è·¯å¾Ħä¸İè¶ħåıĤçĶ±éħįç½®ç»Łä¸Ģç®¡çĲĨ": 1416,
      "':": 1417,
      ")ÃĹ": 1418,
      "10": 1419,
      "12": 1420,
      "AC": 1421,
      "ACI": 1422,
      "Bas": 1423,
      "CA": 1424,
      "Co": 1425,
      "CAP": 1426,
      "Dock": 1427,
      "EST": 1428,
      "FS": 1429,
      "Flo": 1430,
      "FIFO": 1431,
      "Hub": 1432,
      "ID": 1433,
      "La": 1434,
      "LID": 1435,
      "Pr": 1436,
      "Re": 1437,
      "REST": 1438,
      "SY": 1439,
      "Th": 1440,
      "Tr": 1441,
      "Writ": 1442,
      "XSS": 1443,
      "[]": 1444,
      "ad": 1445,
      "al": 1446,
      "ach": 1447,
      "cy": 1448,
      "cor": 1449,
      "dic": 1450,
      "em": 1451,
      "ep": 1452,
      "et": 1453,
      "il": 1454,
      "ok": 1455,
      "queue": 1456,
      "sist": 1457,
      "script": 1458,
      "ug": 1459,
      "va": 1460,
      "¡æīĭ": 1461,
      "¡æŁ¥": 1462,
      "¢«": 1463,
      "£ç¡®": 1464,
      "¥°": 1465,
      "¨ç«Ļ": 1466,
      "ªçİ¯": 1467,
      "«éĢĲæŃ¥": 1468,
      "¯æ°´": 1469,
      "´ç»Ļ": 1470,
      "¶Ī": 1471,
      "º«": 1472,
      "»å½ķ": 1473,
      "¼é¡": 1474,
      "¼å¹³": 1475,
      "½åĿĩ": 1476,
      "¾åĽŀæĶ¶": 1477,
      "¾éĢŁåº¦": 1478,
      "¿æį¢": 1479,
      "¿è¿ĺ": 1480,
      "¿åº¦ä¼ĺåħĪæĲľç´¢": 1481,
      "Ã·": 1482,
      "âī": 1483,
      "åĤ": 1484,
      "åĳ": 1485,
      "åŀ": 1486,
      "æ®": 1487,
      "æ¶Ī": 1488,
      "çģ": 1489,
      "çŁ¥": 1490,
      "è¢«": 1491,
      "èº«": 1492,
      "é£": 1493,
      "éĵ": 1494,
      "é¥°": 1495,
      "Ġ/": 1496,
      "Ġ3": 1497,
      "Ġn": 1498,
      "ĠâĢ": 1499,
      "ĠFlo": 1500,
      "Ģå°ı": 1501,
      "ĥåľ": 1502,
      "ĩè®¾": 1503,
      "ĪåĻ¨": 1504,
      "īåħ¨": 1505,
      "ĭéĹ´": 1506,
      "ĭè½¬": 1507,
      "Įåħ¨": 1508,
      "ıåħ": 1509,
      "ıè§": 1510,
      "Ĳè¡Į": 1511,
      "ĳç«Ļ": 1512,
      "Ĵåħ¥": 1513,
      "ĶåĽŀ": 1514,
      "ķè¿ĩ": 1515,
      "ĸçķ": 1516,
      "Ĺéķ¿": 1517,
      "ĹéĻĲ": 1518,
      "Ļ»å½ķ": 1519,
      "ĿĹ": 1520,
      "Łè½": 1521,
      "łä¸º": 1522,
      "ä¸²": 1523,
      "çĶ¨æĹ": 1524,
      "çĶ¨å°ıæ¨¡åŀĭ": 1525,
      "çĶ¨åĿĩ": 1526,
      "çĶ¨ä½Ļå¼¦": 1527,
      "åĪ©": 1528,
      "çĶ¨æĪ·è®¿éĹ®": 1529,
      "åı£": 1530,
      "åıĹéĻĲ": 1531,
      "ä»·": 1532,
      "ä»ĺ": 1533,
      "è¿Ĳè¡Į": 1534,
      "è¿ĶåĽŀ": 1535,
      "è¯¯": 1536,
      "è¯Ĩ": 1537,
      "åħ·": 1538,
      "åħ¼é¡": 1539,
      "æĺ¯ä¸º": 1540,
      "æĺ¯è·": 1541,
      "æĺ¯è¶ħ": 1542,
      "æĺ¯å®¹åĻ¨": 1543,
      "æĺ¯åı¯åıĺçļĦ": 1544,
      "æĺ¯åģ¶æķ°": 1545,
      "éĢģ": 1546,
      "ä¹°": 1547,
      "ä¹ī": 1548,
      "ä¹ĺ": 1549,
      "ä¹ĭéĹ´": 1550,
      "æľª": 1551,
      "è®¤": 1552,
      "è®º": 1553,
      "æķ°éĩı": 1554,
      "çļĦå°ı": 1555,
      "çļĦåħ³ç³»": 1556,
      "çļĦæ°´": 1557,
      "çļĦæıĲç¤ºè¯į": 1558,
      "çļĦåŃ¦ä¹łçİĩä¸İ": 1559,
      "çļĦæł¸å¿ĥ": 1560,
      "äº§": 1561,
      "äºº": 1562,
      "ï¼īï¼Į": 1563,
      "ç»Ń": 1564,
      "ç»ıåħ": 1565,
      "ç»ķè¿ĩ": 1566,
      "èĢħ": 1567,
      "å®¡æŁ¥": 1568,
      "å®īåħ¨": 1569,
      "å®Įåħ¨": 1570,
      "è¿ĩå¤§": 1571,
      "ä¸İæĶ¶æķĽ": 1572,
      "ä¸İé¢ĦçĥŃ": 1573,
      "ä¸İçŁŃ": 1574,
      "æĢĿæĥ": 1575,
      "ä»Ģä¹Īæĺ¯Python": 1576,
      "ä»Ģä¹Īæĺ¯äºĭåĬ¡": 1577,
      "åĨ²ç": 1578,
      "åĨĹéķ¿": 1579,
      "å°ıåĲİ": 1580,
      "å¿µ": 1581,
      "æı¡æīĭ": 1582,
      "æıĴåħ¥": 1583,
      "ç½ĳç«Ļ": 1584,
      "åĪĨä¸º": 1585,
      "åĪĨåĮº": 1586,
      "æľīåºı": 1587,
      "æľīæķĪ": 1588,
      "åĽ¾": 1589,
      "åĽłä¸º": 1590,
      "è´¥": 1591,
      "è´Łè½": 1592,
      "æĽ¿æį¢": 1593,
      "è®Ńç»ĥçļĦå°ı": 1594,
      "å¹¿åº¦ä¼ĺåħĪæĲľç´¢": 1595,
      "æĿ¥": 1596,
      "æĿ¿": 1597,
      "æĽ´å¥½": 1598,
      "æĽ´æĺİæĺ¾": 1599,
      "æŃ£ç¡®": 1600,
      "éĹŃ": 1601,
      "è®¡ä¸Ģä¸ª": 1602,
      "éĢļä¿ĹçļĦæıĲç¤ºè¯į": 1603,
      "ä¼°": 1604,
      "ä¼¼å¹³": 1605,
      "åŃĲæĢ§": 1606,
      "åŃĲæłĳ": 1607,
      "åĴĮtuple": 1608,
      "åģ¿è¿ĺ": 1609,
      "åģĩè®¾": 1610,
      "åĪĹè¡¨": 1611,
      "æľĢå¤§": 1612,
      "åĲĪéĢĤ": 1613,
      "ç½®åĲĪéĢĤ": 1614,
      "æĦıæķ°éĩı": 1615,
      "ers": 1616,
      "å¹¶æİĴåºı": 1617,
      "å¹¶å®ļæľŁ": 1618,
      "è¾ĵåįıè®®": 1619,
      "æĬ¤": 1620,
      "ç¼Ģ": 1621,
      "éĶĢå°ı": 1622,
      "åħĪåĩº": 1623,
      "åħĪå°ıåĲİ": 1624,
      "äºİæł¹": 1625,
      "å¤§è¿Ľè¡Į": 1626,
      "å¤§æľīæķĪ": 1627,
      "è¶Ĭéĩį": 1628,
      "æ¨¡åĿĹ": 1629,
      "é«ĺæķĪ": 1630,
      "è¿Ľç¨ĭ": 1631,
      "è¿ĽåħĪåĩº": 1632,
      "æĸ¹å¢ŀ": 1633,
      "æĸ¹æł¹": 1634,
      "ä¸Ńåºı": 1635,
      "åı¯èĥ½": 1636,
      "å¤įåĪ¶": 1637,
      "æĿĥéĻĲ": 1638,
      "åİ»": 1639,
      "ä¿ĿæĬ¤": 1640,
      "åĩºCPUä¸Ĭ": 1641,
      "å¾ªçİ¯": 1642,
      "ä¸įæĺ¯è´¨æķ°": 1643,
      "åıĳéĢģ": 1644,
      "åŃĺåĤ": 1645,
      "æİĴåĪĹ": 1646,
      "åĽŀæº": 1647,
      "åĽŀçŃĶ": 1648,
      "èĥ½è¢«": 1649,
      "çĽĺ": 1650,
      "çĽ´ç»Ļ": 1651,
      "è®¡ç®Ĺæľº": 1652,
      "è®¡ç®Ĺå¼Ģ": 1653,
      "è®¡ç®ĹæĽ´å¿«": 1654,
      "è®¡ç®Ĺè¶Ĭéĩį": 1655,
      "ä»£çłģæıĲäº¤": 1656,
      "ä»£çłģå®¡æŁ¥": 1657,
      "æ³¨æĦıåĬĽå¤įæĿĤåº¦": 1658,
      "æŁ¥æī¾": 1659,
      "çŃĸçķ": 1660,
      "éĹ®é¢ĺæ¸ħ": 1661,
      "ency": 1662,
      "æµıè§": 1663,
      "ä¸ĭå¢ŀ": 1664,
      "éĽĨæĪĲ": 1665,
      "éĽĨåŀĭ": 1666,
      "å·§": 1667,
      "å·²": 1668,
      "çº¯æ°´": 1669,
      "ç³»ç»Ł": 1670,
      "éĢĤçĶ¨äºİ": 1671,
      "åºıåĪĹéķ¿åº¦": 1672,
      "å¿«éĢŁæİĴåºı": 1673,
      "åľ¨åĩ½æķ°": 1674,
      "åľ¨åıĹéĻĲ": 1675,
      "review": 1676,
      "read": 1677,
      "æ±Ĥè§£": 1678,
      "æ±ĤåĴĮ": 1679,
      "åĪ°çĶŁ": 1680,
      "å¤±è´¥": 1681,
      "åĽºå®ļæķ°æį®": 1682,
      "ä¸ºä»Ģä¹ĪåºıåĪĹéķ¿åº¦": 1683,
      "ç®Ĺæ³ķè¦ģ": 1684,
      "éĿŀ": 1685,
      "äº¤ä»ĺ": 1686,
      "åĨħéĥ¨": 1687,
      "æİĴåºıç®Ĺæ³ķ": 1688,
      "tupleçĶ¨": 1689,
      "tupleæĺ¯ä¸į": 1690,
      "HTTPS": 1691,
      "HTTPæĺ¯è¶ħ": 1692,
      "çī¹æĢ§": 1693,
      "èµ°": 1694,
      "æİ¥åı£": 1695,
      "åĨįçĶ¨ä½Ļå¼¦": 1696,
      "æıĲåįĩç¨³å®ļæĢ§": 1697,
      "æĮģç»Ń": 1698,
      "Pythonä¸Ńå¦Ĥä½ķ": 1699,
      "decor": 1700,
      "listçĶ¨": 1701,
      "listæĺ¯åı¯åıĺçļĦ": 1702,
      "liståĴĮtuple": 1703,
      "æ¦Ĥå¿µ": 1704,
      "ç¡®è®¤": 1705,
      "è®¾è®¡": 1706,
      "ç»ĦSQL": 1707,
      "åİŁåŃĲæĢ§": 1708,
      "éĢĤåĲĪå°ıæ¨¡åŀĭ": 1709,
      "å¢ŀåĬł": 1710,
      "å¢ŀåĪł": 1711,
      "()ãĢĤ": 1712,
      "5050": 1713,
      "ator": 1714,
      "æĺ¯ä¸Ģä¸ª": 1715,
      "æĺ¯ä¸Ģç»ĦSQL": 1716,
      "éĢĢçģ": 1717,
      "ç¼©æĶ¾": 1718,
      "äºĮè¿ĽåĪ¶çļĦ": 1719,
      "äºĮè¿ĽåĪ¶è½¬": 1720,
      "åĨħåŃĺä¸ĭå¢ŀ": 1721,
      "åīįç¼Ģ": 1722,
      "å±ķ": 1723,
      "åĵįåºĶ": 1724,
      "çĶ¨äºİåĽºå®ļæķ°æį®": 1725,
      "è¿ĺæľī": 1726,
      "å°ĨåºĶçĶ¨": 1727,
      "æĿĤè´¨": 1728,
      "éĹ´å¤įæĿĤåº¦": 1729,
      "æĬĢå·§": 1730,
      "æģ¯éĺŁåĪĹ": 1731,
      "æľįåĬ¡åıĳçİ°": 1732,
      "RoPEçĶ¨æĹ": 1733,
      "çļĦä½ľçĶ¨æĺ¯ä»Ģä¹Ī": 1734,
      "API": 1735,
      "GitHub": 1736,
      "SQLæ³¨åħ¥": 1737,
      "log": 1738,
      "ocess": 1739,
      "ä¸»è¦ģ": 1740,
      "ä»»æĦıæķ°éĩı": 1741,
      "æľ¬ä¼ł": 1742,
      "éĩĩçĶ¨": 1743,
      "ç»ĻåĩºCPUä¸Ĭ": 1744,
      "å¯ĨéĽĨåŀĭ": 1745,
      "éĥ½æĺ¯": 1746,
      "éĺ²æŃ¢": 1747,
      "å¾®æľįåĬ¡": 1748,
      "è§Ĥå¯ŁéªĮè¯ģæįŁå¤±": 1749,
      "çº¿ç¨ĭ": 1750,
      "ingæ¨¡åĿĹ": 1751,
      "ä¼ĺåħĪçº§": 1752,
      "éļĶç¦»æĢ§": 1753,
      "çĽ¸å¯¹ä½įç½®ç¼ĸçłģ": 1754,
      "äºĭåĬ¡æĺ¯ä¸Ģç»ĦSQL": 1755,
      "éģ¿åħįåĨĹéķ¿": 1756,
      "...": 1757,
      "GETèİ·åıĸ": 1758,
      "users": 1759,
      "âĢľ": 1760,
      "è£ħæĪĲ": 1761,
      "è£ħé¥°": 1762,
      "è¿ŀéĢļ": 1763,
      "è¿ŀæİ¥": 1764,
      "è¯Ħä¼°": 1765,
      "åįģè¿ĽåĪ¶çļĦ": 1766,
      "æĸĩæľ¬ä¼ł": 1767,
      "å¼ķçĶ¨è®¡æķ°": 1768,
      "å¦Ĥä½ķè®¾è®¡ä¸Ģä¸ª": 1769,
      "å¦Ĥä½ķè®¾ç½®åĲĪéĢĤ": 1770,
      "è¦ģä¹Īåħ¨éĥ¨": 1771,
      "ä¼ļåıĺæħ¢": 1772,
      "å½Ĵå¹¶æİĴåºı": 1773,
      "CPUä¸ĬæĽ´æĺİæĺ¾": 1774,
      "Pythonä¸ŃliståĴĮtuple": 1775,
      "æł¸å¿ĥæ¦Ĥå¿µ": 1776,
      "æĬĢæľ¯åĢº": 1777,
      "æīĢæľīèĬĤçĤ¹": 1778,
      "çĭ¬ç«ĭå¼Ģåıĳ": 1779,
      "ClientåıĳéĢģ": 1780,
      "RMSNormçĶ¨åĿĩ": 1781,
      "èĴ¸é¦ıæ°´": 1782,
      "æ¢¯åº¦ç´¯ç§¯ä¸İé¢ĦçĥŃ": 1783,
      "æ¢¯åº¦ç´¯ç§¯çļĦä½ľçĶ¨æĺ¯ä»Ģä¹Ī": 1784,
      "Consist": 1785,
      "SOLID": 1786,
      "Server": 1787,
      "func": 1788,
      "sif": 1789,
      "start": 1790,
      "æ»¡": 1791,
      "æĻ°": 1792,
      "çĦ¶": 1793,
      "æī©å±ķ": 1794,
      "åıĮæĸ¹": 1795,
      "æķ´éĻ¤": 1796,
      "è¿ĳä¼¼å¹³": 1797,
      "åħ¶ä»ĸ": 1798,
      "éĢĴå½Ĵ": 1799,
      "çļĦæķ°æį®ç»ĵæŀĦ": 1800,
      "å°ģè£ħæĪĲ": 1801,
      "æł¼å¼ı": 1802,
      "å¯¼èĩ´": 1803,
      "ä»Ģä¹Īæĺ¯HTTPåįıè®®": 1804,
      "è´ªå¿ĥç®Ĺæ³ķ": 1805,
      "è§£éĩĬRoPEçĽ¸å¯¹ä½įç½®ç¼ĸçłģ": 1806,
      "æ¨¡æĿ¿": 1807,
      "éĶĻè¯¯": 1808,
      "æĸ¹å¼ıæĬĬçĽ¸å¯¹ä½įç½®ä¿¡æģ¯æ³¨åħ¥æ³¨æĦıåĬĽ": 1809,
      "éĻįä½İ": 1810,
      "åºıåĪĹè¶Ĭéķ¿è®¡ç®Ĺè¶Ĭéĩį": 1811,
      "åħ¨å±ĢæľĢä¼ĺ": 1812,
      "åĽºå®ļç§įåŃĲå¹¶å®ļæľŁ": 1813,
      "å®ŀçİ°å¤ļ": 1814,
      "æİ¥æĶ¶ä»»æĦıæķ°éĩı": 1815,
      "æĮģä¹ħæĢ§": 1816,
      "çŃīäºİäºĮè¿ĽåĪ¶çļĦ": 1817,
      "ä¸īæ¬¡æı¡æīĭ": 1818,
      "æľĢåĲİä¸Ģä½įæĺ¯": 1819,
      "PUTæĽ´æĸ°": 1820,
      "éĤ»æİ¥": 1821,
      "ä¿ĿçķĻä½įåºıåħ³ç³»ä¸Ķè®¡ç®Ĺå¼Ģ": 1822,
      "DELETEåĪłéĻ¤": 1823,
      "123": 1824,
      "ACK": 1825,
      "ACID": 1826,
      "Docker": 1827,
      "SYN": 1828,
      "Write": 1829,
      "[]ï¼Į": 1830,
      "dict": 1831,
      "«éĢĲæŃ¥éĻįä½İ": 1832,
      "½åĿĩè¡¡": 1833,
      "¾éĢŁåº¦ä¸İæĶ¶æķĽ": 1834,
      "åŀĥåľ": 1835,
      "æ¶Īæģ¯éĺŁåĪĹ": 1836,
      "ĠâĢĿ": 1837,
      "ĠFlow": 1838,
      "ĭè½¬æĸ¹å¼ıæĬĬçĽ¸å¯¹ä½įç½®ä¿¡æģ¯æ³¨åħ¥æ³¨æĦıåĬĽ": 1839,
      "çĶ¨å°ıæ¨¡åŀĭä¸İçŁŃ": 1840,
      "åħ¼é¡¾éĢŁåº¦ä¸İæĶ¶æķĽ": 1841,
      "æĺ¯è·¨ç«Ļ": 1842,
      "çļĦåŃ¦ä¹łçİĩä¸İè°ĥåº¦": 1843,
      "çļĦæł¸å¿ĥæĢĿæĥ": 1844,
      "ç»ıåħ¸": 1845,
      "å®Įåħ¨äºĮåıīæłĳ": 1846,
      "è¿ĩå¤§ä¼ļåıĺæħ¢": 1847,
      "ä»Ģä¹Īæĺ¯PythonçļĦ": 1848,
      "åĨ²çªģ": 1849,
      "è´Łè½½åĿĩè¡¡": 1850,
      "è®Ńç»ĥçļĦå°ıæĬĢå·§": 1851,
      "éĢļä¿ĹçļĦæıĲç¤ºè¯įæ¨¡æĿ¿": 1852,
      "åŃĲæłĳæīĢæľīèĬĤçĤ¹": 1853,
      "åģĩè®¾åĨ²çªģ": 1854,
      "åħĪå°ıåĲİå¤§è¿Ľè¡Į": 1855,
      "å¤§æľīæķĪæī¹å¤§å°ı": 1856,
      "æĸ¹å¢ŀéķ¿": 1857,
      "åı¯èĥ½çļĦ": 1858,
      "åŃĺåĤ¨": 1859,
      "åĽŀæº¯": 1860,
      "åĽŀçŃĶçĽ´ç»Ļ": 1861,
      "æ³¨æĦıåĬĽå¤įæĿĤåº¦è¿ĳä¼¼å¹³": 1862,
      "çŃĸçķ¥": 1863,
      "éĹ®é¢ĺæ¸ħæĻ°": 1864,
      "æµıè§ĪåĻ¨": 1865,
      "åľ¨åıĹéĻĲåĨħåŃĺä¸ĭå¢ŀ": 1866,
      "åĪ°çĶŁäº§": 1867,
      "ä¸ºä»Ģä¹ĪåºıåĪĹéķ¿åº¦è¿ĩå¤§ä¼ļåıĺæħ¢": 1868,
      "tupleæĺ¯ä¸įåı¯åıĺçļĦ": 1869,
      "HTTPæĺ¯è¶ħæĸĩæľ¬ä¼ł": 1870,
      "åĨįçĶ¨ä½Ļå¼¦éĢĢçģ": 1871,
      "Pythonä¸Ńå¦Ĥä½ķå®ŀçİ°å¤ļ": 1872,
      "decorator": 1873,
      "å¢ŀåĪłæĶ¹": 1874,
      "RoPEçĶ¨æĹĭè½¬æĸ¹å¼ıæĬĬçĽ¸å¯¹ä½įç½®ä¿¡æģ¯æ³¨åħ¥æ³¨æĦıåĬĽ": 1875,
      "ç»ĻåĩºCPUä¸Ĭè®Ńç»ĥçļĦå°ıæĬĢå·§": 1876,
      "å¯ĨéĽĨåŀĭä»»åĬ¡": 1877,
      "äºĭåĬ¡æĺ¯ä¸Ģç»ĦSQLæĵįä½ľ": 1878,
      "éģ¿åħįåĨĹéķ¿åīįç¼Ģ": 1879,
      "è£ħé¥°åĻ¨": 1880,
      "å¦Ĥä½ķè®¾è®¡ä¸Ģä¸ªéĢļä¿ĹçļĦæıĲç¤ºè¯įæ¨¡æĿ¿": 1881,
      "å¦Ĥä½ķè®¾ç½®åĲĪéĢĤçļĦåŃ¦ä¹łçİĩä¸İè°ĥåº¦": 1882,
      "Pythonä¸ŃliståĴĮtupleçļĦåĮºåĪ«": 1883,
      "RMSNormçĶ¨åĿĩæĸ¹æł¹": 1884,
      "Consistency": 1885,
      "è§£éĩĬRoPEçĽ¸å¯¹ä½įç½®ç¼ĸçłģçļĦæł¸å¿ĥæĢĿæĥ": 1886,
      "åĽºå®ļç§įåŃĲå¹¶å®ļæľŁè¯Ħä¼°": 1887,
      "æİ¥æĶ¶ä»»æĦıæķ°éĩıçļĦ": 1888,
      "ä¿ĿçķĻä½įåºıåħ³ç³»ä¸Ķè®¡ç®Ĺå¼ĢéĶĢå°ı": 1889,
      "åŀĥåľ¾åĽŀæĶ¶": 1890,
      "çĶ¨å°ıæ¨¡åŀĭä¸İçŁŃåºıåĪĹ": 1891,
      "åħĪå°ıåĲİå¤§è¿Ľè¡Įé¢ĦçĥŃ": 1892,
      "æ³¨æĦıåĬĽå¤įæĿĤåº¦è¿ĳä¼¼å¹³æĸ¹å¢ŀéķ¿": 1893,
      "åľ¨åıĹéĻĲåĨħåŃĺä¸ĭå¢ŀå¤§æľīæķĪæī¹å¤§å°ı": 1894,
      "HTTPæĺ¯è¶ħæĸĩæľ¬ä¼łè¾ĵåįıè®®": 1895,
      "åĨįçĶ¨ä½Ļå¼¦éĢĢçģ«éĢĲæŃ¥éĻįä½İ": 1896,
      "è§£éĩĬRoPEçĽ¸å¯¹ä½įç½®ç¼ĸçłģçļĦæł¸å¿ĥæĢĿæĥ³": 1897,
      "\"(": 1898,
      "')": 1899,
      "'=": 1900,
      "('": 1901,
      "(*": 1902,
      ")ï¼Ī": 1903,
      "+...": 1904,
      ",'": 1905,
      ",**": 1906,
      "04": 1907,
      "2â": 1908,
      "200": 1909,
      "49": 1910,
      "404": 1911,
      "51": 1912,
      "500": 1913,
      "98": 1914,
      "99": 1915,
      "</": 1916,
      "={": 1917,
      ">ï¼Į": 1918,
      "AO": 1919,
      "AT": 1920,
      "Ac": 1921,
      "At": 1922,
      "Asi": 1923,
      "Ava": 1924,
      "Be": 1925,
      "BST": 1926,
      "BFS": 1927,
      "CH": 1928,
      "Cach": 1929,
      "DB": 1930,
      "Di": 1931,
      "Du": 1932,
      "Dä¾Ŀèµĸ": 1933,
      "DFS": 1934,
      "Dep": 1935,
      "Eu": 1936,
      "FU": 1937,
      "GC": 1938,
      "Gen": 1939,
      "Ht": 1940,
      "HBas": 1941,
      "In": 1942,
      "Is": 1943,
      "Iæİ¥åı£": 1944,
      "Ja": 1945,
      "Jen": 1946,
      "JSO": 1947,
      "Kr": 1948,
      "Kar": 1949,
      "KéĹ®é¢ĺ": 1950,
      "Kub": 1951,
      "LR": 1952,
      "LS": 1953,
      "Léĩ": 1954,
      "Lè¡¨ç¤º": 1955,
      "LIFO": 1956,
      "Lock": 1957,
      "LFU": 1958,
      "Mem": 1959,
      "OP": 1960,
      "OR": 1961,
      "On": 1962,
      "Oå¼Ģ": 1963,
      "Oå¯ĨéĽĨåŀĭä»»åĬ¡": 1964,
      "PR": 1965,
      "Po": 1966,
      "Pre": 1967,
      "Pip": 1968,
      "Pol": 1969,
      "Part": 1970,
      "PAT": 1971,
      "Queue": 1972,
      "RDB": 1973,
      "RLè¡¨ç¤º": 1974,
      "Se": 1975,
      "St": 1976,
      "Såįķ": 1977,
      "Script": 1978,
      "Tok": 1979,
      "TLS": 1980,
      "TOP": 1981,
      "URLè¡¨ç¤º": 1982,
      "ab": 1983,
      "an": 1984,
      "anc": 1985,
      "bug": 1986,
      "cu": 1987,
      "cach": 1988,
      "do": 1989,
      "el": 1990,
      "es": 1991,
      "eéĢļä¿¡": 1992,
      "fi": 1993,
      "fer": 1994,
      "form": 1995,
      "gre": 1996,
      "ho": 1997,
      "håħ¥": 1998,
      "hin": 1999,
      "im": 2000,
      "jk": 2001,
      "jo": 2002,
      "ka": 2003,
      "kin": 2004,
      "kal": 2005,
      "lt": 2006,
      "ly": 2007,
      "mu": 2008,
      "ment": 2009,
      "mic": 2010,
      "nk": 2011,
      "nä¸º": 2012,
      "net": 2013,
      "oug": 2014,
      "omic": 2015,
      "pop": 2016,
      "par": 2017,
      "pus": 2018,
      "pOn": 2019,
      "ra": 2020,
      "ration": 2021,
      "rocess": 2022,
      "roug": 2023,
      "sion": 2024,
      "sub": 2025,
      "sess": 2026,
      "sæĺ¯å®¹åĻ¨": 2027,
      "sform": 2028,
      "targ": 2029,
      "tion": 2030,
      "tent": 2031,
      "tol": 2032,
      "tdo": 2033,
      "tfi": 2034,
      "tpOn": 2035,
      "unk": 2036,
      "vic": 2037,
      "vel": 2038,
      "wn": 2039,
      "xss": 2040,
      "yer": 2041,
      "yment": 2042,
      "}ãĢĤ": 2043,
      "¡éªĮ": 2044,
      "¡æİĴåºı": 2045,
      "¢äºĮ": 2046,
      "£°": 2047
    },
    "merges": [
      [
        "ï",
        "¼"
      ],
      [
        "ã",
        "Ģ"
      ],
      [
        "ãĢ",
        "Ĥ"
      ],
      [
        "ä",
        "¸"
      ],
      [
        "ç",
        "Ķ"
      ],
      [
        "çĶ",
        "¨"
      ],
      [
        "å",
        "Ĭ"
      ],
      [
        "ï¼",
        "Į"
      ],
      [
        "ãĢ",
        "ģ"
      ],
      [
        "æ",
        "Ī"
      ],
      [
        "ï¼",
        "ļ"
      ],
      [
        "æ",
        "ī"
      ],
      [
        "å",
        "Ī"
      ],
      [
        "çĶ¨",
        "æĪ"
      ],
      [
        "çĶ¨æĪ",
        "·"
      ],
      [
        "å",
        "ı"
      ],
      [
        "æ",
        "ĺ"
      ],
      [
        "åĬ",
        "©"
      ],
      [
        "æ",
        "ķ"
      ],
      [
        "æī",
        "ĭ"
      ],
      [
        "ä",
        "»"
      ],
      [
        "è",
        "¿"
      ],
      [
        "åĬ©",
        "æīĭ"
      ],
      [
        "è",
        "¯"
      ],
      [
        "å",
        "ħ"
      ],
      [
        "æĺ",
        "¯"
      ],
      [
        "é",
        "Ģ"
      ],
      [
        "ä",
        "¹"
      ],
      [
        "ä",
        "½"
      ],
      [
        "æ",
        "ľ"
      ],
      [
        "è",
        "®"
      ],
      [
        "æ",
        "Ģ"
      ],
      [
        "é",
        "ĩ"
      ],
      [
        "æķ",
        "°"
      ],
      [
        "ç",
        "ļ"
      ],
      [
        "çļ",
        "Ħ"
      ],
      [
        "å",
        "º"
      ],
      [
        "ä",
        "º"
      ],
      [
        "å",
        "¤"
      ],
      [
        "ï¼",
        "Ī"
      ],
      [
        "ï¼",
        "ī"
      ],
      [
        "ä¹",
        "Ī"
      ],
      [
        "ç",
        "»"
      ],
      [
        "ç",
        "¨"
      ],
      [
        "Ģ",
        "ä¹Ī"
      ],
      [
        "ä»",
        "Ģä¹Ī"
      ],
      [
        "è",
        "Ģ"
      ],
      [
        "è",
        "§"
      ],
      [
        "å",
        "®"
      ],
      [
        "å",
        "Ĳ"
      ],
      [
        "å",
        "Ń"
      ],
      [
        "è¿",
        "ĩ"
      ],
      [
        "ä",
        "¿"
      ],
      [
        "å",
        "°"
      ],
      [
        "ç",
        "®"
      ],
      [
        "ç¨",
        "ĭ"
      ],
      [
        "èĢ",
        "ĥ"
      ],
      [
        "æ",
        "ł"
      ],
      [
        "ä¸",
        "İ"
      ],
      [
        "¦",
        "Ĥ"
      ],
      [
        "æ",
        "³"
      ],
      [
        "æ",
        "Ķ"
      ],
      [
        "ï¼",
        "Ł"
      ],
      [
        "æĢ",
        "Ŀ"
      ],
      [
        "è¿ĩ",
        "ç¨ĭ"
      ],
      [
        "èĢĥ",
        "è¿ĩç¨ĭ"
      ],
      [
        "æĢĿ",
        "èĢĥè¿ĩç¨ĭ"
      ],
      [
        "è§",
        "£"
      ],
      [
        "æ",
        "İ"
      ],
      [
        "å",
        "¯"
      ],
      [
        "å",
        "ĩ"
      ],
      [
        "æ",
        "į"
      ],
      [
        "ä»Ģä¹Ī",
        "æĺ¯"
      ],
      [
        "å",
        "¦Ĥ"
      ],
      [
        "å®",
        "ļ"
      ],
      [
        "ä¸",
        "Ģ"
      ],
      [
        "éĢ",
        "ļ"
      ],
      [
        "å",
        "Ĩ"
      ],
      [
        "å°",
        "ı"
      ],
      [
        "å",
        "į"
      ],
      [
        "å",
        "ł"
      ],
      [
        "åº",
        "ı"
      ],
      [
        "ï¼ī",
        "ãĢģ"
      ],
      [
        "å",
        "¿"
      ],
      [
        "æ",
        "ı"
      ],
      [
        "ç",
        "½"
      ],
      [
        "åĪ",
        "Ĩ"
      ],
      [
        "æľ",
        "ī"
      ],
      [
        "æ",
        "ĸ"
      ],
      [
        "å",
        "Ľ"
      ],
      [
        "ç",
        "Ĳ"
      ],
      [
        "è",
        "´"
      ],
      [
        "éĩ",
        "į"
      ],
      [
        "çĲ",
        "Ĩ"
      ],
      [
        "å",
        "¼"
      ],
      [
        "æ",
        "Ľ"
      ],
      [
        "ç",
        "İ"
      ],
      [
        "Ń",
        "ç»"
      ],
      [
        "è®",
        "Ńç»"
      ],
      [
        "è®Ńç»",
        "ĥ"
      ],
      [
        "å",
        "¹"
      ],
      [
        "æ",
        "Ŀ"
      ],
      [
        "è",
        "¾"
      ],
      [
        "å¯",
        "¹"
      ],
      [
        "éĢļ",
        "ä¿"
      ],
      [
        "æı",
        "Ĳ"
      ],
      [
        "¾",
        "åł"
      ],
      [
        "è¯",
        "¾åł"
      ],
      [
        "æĢ",
        "§"
      ],
      [
        "éĩ",
        "Ĭ"
      ],
      [
        "æĽ",
        "´"
      ],
      [
        "è¯¾åł",
        "Ĥ"
      ],
      [
        "æ",
        "Ń"
      ],
      [
        "é",
        "Ĺ"
      ],
      [
        "ä¸",
        "º"
      ],
      [
        "ä½",
        "ķ"
      ],
      [
        "è®",
        "¡"
      ],
      [
        "æķ°",
        "æį"
      ],
      [
        "è§£",
        "éĩĬ"
      ],
      [
        "å¦Ĥ",
        "ä½ķ"
      ],
      [
        "æķ°æį",
        "®"
      ],
      [
        "¤",
        "º"
      ],
      [
        "æ",
        "¯"
      ],
      [
        "ç",
        "¤º"
      ],
      [
        "è",
        "¶"
      ],
      [
        "åº",
        "¦"
      ],
      [
        "ç®",
        "Ĺ"
      ],
      [
        "éĢļä¿",
        "Ĺ"
      ],
      [
        "¦",
        "ģ"
      ],
      [
        "è",
        "¦ģ"
      ],
      [
        "åħ",
        "¥"
      ],
      [
        "ä",
        "¼"
      ],
      [
        "è",
        "¡"
      ],
      [
        "æ³",
        "¨"
      ],
      [
        "¡",
        "å"
      ],
      [
        "å",
        "Ĵ"
      ],
      [
        "æ",
        "¨"
      ],
      [
        "é",
        "ª"
      ],
      [
        "åı",
        "Ĥ"
      ],
      [
        "ä½",
        "į"
      ],
      [
        "åŃ",
        "Ĳ"
      ],
      [
        "ç®",
        "Ģ"
      ],
      [
        "æ³",
        "ķ"
      ],
      [
        "åĴ",
        "Į"
      ],
      [
        "å",
        "ģ"
      ],
      [
        "æ",
        "Ħ"
      ],
      [
        "æ",
        "Ĺ"
      ],
      [
        "ç",
        "Ĥ"
      ],
      [
        "é",
        "ĥ"
      ],
      [
        "åĪ",
        "¶"
      ],
      [
        "åĪ",
        "Ĺ"
      ],
      [
        "è¯",
        "ģ"
      ],
      [
        "è¯",
        "į"
      ],
      [
        "æľ",
        "Ģ"
      ],
      [
        "åĲ",
        "Ī"
      ],
      [
        "ç½",
        "®"
      ],
      [
        "æĦ",
        "ı"
      ],
      [
        "çĤ",
        "¹"
      ],
      [
        "e",
        "r"
      ],
      [
        "å",
        "Į"
      ],
      [
        "æ",
        "ŀ"
      ],
      [
        "é",
        "¢"
      ],
      [
        "ŀ",
        "ĭ"
      ],
      [
        "å¹",
        "¶"
      ],
      [
        "è¾",
        "ĵ"
      ],
      [
        "±",
        "Ĥ"
      ],
      [
        "æ",
        "Ĭ"
      ],
      [
        "ç",
        "¼"
      ],
      [
        "ç",
        "ł"
      ],
      [
        "é",
        "Ķ"
      ],
      [
        "åħ",
        "Ī"
      ],
      [
        "äº",
        "İ"
      ],
      [
        "å¤",
        "§"
      ],
      [
        "å¿",
        "«"
      ],
      [
        "æ¯",
        "Ķ"
      ],
      [
        "è¶",
        "Ĭ"
      ],
      [
        "æ¨",
        "¡å"
      ],
      [
        "çł",
        "ģ"
      ],
      [
        "o",
        "n"
      ],
      [
        "«",
        "ĺ"
      ],
      [
        "é",
        "«ĺ"
      ],
      [
        "ä¸",
        "ª"
      ],
      [
        "æĪ",
        "Ĳ"
      ],
      [
        "è¿",
        "Ľ"
      ],
      [
        "æĸ",
        "¹"
      ],
      [
        "æŃ",
        "¥"
      ],
      [
        "éĹ",
        "®"
      ],
      [
        "éĢļä¿Ĺ",
        "è§£éĩĬ"
      ],
      [
        "éª",
        "Į"
      ],
      [
        "o",
        "p"
      ],
      [
        "é",
        "ĺ"
      ],
      [
        "é",
        "Ļ"
      ],
      [
        "ä¸",
        "Ń"
      ],
      [
        "åı",
        "¯"
      ],
      [
        "åħ",
        "³"
      ],
      [
        "äº",
        "Į"
      ],
      [
        "å¤",
        "į"
      ],
      [
        "æĿ",
        "ĥ"
      ],
      [
        "æ¨¡å",
        "ŀĭ"
      ],
      [
        "å",
        "İ"
      ],
      [
        "ç",
        "§"
      ],
      [
        "ä½",
        "ľ"
      ],
      [
        "éĩ",
        "ı"
      ],
      [
        "åĲ",
        "İ"
      ],
      [
        "ä¿",
        "Ŀ"
      ],
      [
        "æĶ",
        "¶"
      ],
      [
        "åĩ",
        "º"
      ],
      [
        "çİ",
        "ĩ"
      ],
      [
        "éĥ",
        "¨"
      ],
      [
        "³",
        "å®ļ"
      ],
      [
        "¼",
        "Ķ"
      ],
      [
        "å",
        "¾"
      ],
      [
        "æ",
        "ĭ"
      ],
      [
        "æ",
        "¼Ķ"
      ],
      [
        "ç",
        "´"
      ],
      [
        "è",
        "ĥ"
      ],
      [
        "Ł",
        "¥"
      ],
      [
        "ä¸",
        "į"
      ],
      [
        "åı",
        "ĳ"
      ],
      [
        "ä»",
        "£"
      ],
      [
        "éĢ",
        "Ł"
      ],
      [
        "åŃ",
        "ĺ"
      ],
      [
        "æĶ",
        "¹"
      ],
      [
        "æİ",
        "Ĵ"
      ],
      [
        "åĽ",
        "ŀ"
      ],
      [
        "è´",
        "¨"
      ],
      [
        "æ³¨",
        "æĦı"
      ],
      [
        "é¢",
        "ĺ"
      ],
      [
        "æ¼Ķ",
        "ç¤º"
      ],
      [
        "èĥ",
        "½"
      ],
      [
        "å",
        "ľ"
      ],
      [
        "æ",
        "¸"
      ],
      [
        "ç",
        "Ľ"
      ],
      [
        "è",
        "ĩ"
      ],
      [
        "åĬ",
        "Ľ"
      ],
      [
        "åĬ",
        "ł"
      ],
      [
        "è¿",
        "°"
      ],
      [
        "ï¼ī",
        "ãĢĤ"
      ],
      [
        "ç¨",
        "³å®ļ"
      ],
      [
        "è¯¾åłĤ",
        "ç®Ģ"
      ],
      [
        "è®¡",
        "ç®Ĺ"
      ],
      [
        "åıĤ",
        "æķ°"
      ],
      [
        "éªĮ",
        "è¯ģ"
      ],
      [
        "ä»£",
        "çłģ"
      ],
      [
        "æ³¨æĦı",
        "åĬĽ"
      ],
      [
        "è¯¾åłĤç®Ģ",
        "è¿°"
      ],
      [
        "C",
        "P"
      ],
      [
        "a",
        "r"
      ],
      [
        "i",
        "s"
      ],
      [
        "t",
        "u"
      ],
      [
        "æ",
        "Ł¥"
      ],
      [
        "ç",
        "Ń"
      ],
      [
        "Ļ",
        "¨"
      ],
      [
        "åĬ",
        "¡"
      ],
      [
        "åĬ",
        "¨"
      ],
      [
        "è§",
        "Ĥ"
      ],
      [
        "æĹ",
        "¶"
      ],
      [
        "æŀ",
        "Ħ"
      ],
      [
        "éĹ®",
        "é¢ĺ"
      ],
      [
        "æĿĥ",
        "éĩį"
      ],
      [
        "e",
        "n"
      ],
      [
        "o",
        "r"
      ],
      [
        "¨",
        "çĲĨ"
      ],
      [
        "»",
        "º"
      ],
      [
        "å",
        "»º"
      ],
      [
        "æ",
        "µ"
      ],
      [
        "é",
        "ķ"
      ],
      [
        "é",
        "Ľ"
      ],
      [
        "ĵ",
        "į"
      ],
      [
        "ä¸",
        "ĭ"
      ],
      [
        "æł",
        "ĳ"
      ],
      [
        "æİ",
        "¨çĲĨ"
      ],
      [
        "è¡",
        "¨"
      ],
      [
        "éĽ",
        "Ĩ"
      ],
      [
        "t",
        "op"
      ],
      [
        "³",
        "»"
      ],
      [
        "å",
        "·"
      ],
      [
        "å",
        "½"
      ],
      [
        "æ",
        "Į"
      ],
      [
        "ç",
        "º"
      ],
      [
        "ç",
        "³»"
      ],
      [
        "è",
        "½"
      ],
      [
        "é",
        "¡"
      ],
      [
        "é",
        "ħ"
      ],
      [
        "éĢ",
        "Ĥ"
      ],
      [
        "ä½",
        "İ"
      ],
      [
        "ç»",
        "ĵ"
      ],
      [
        "åºı",
        "åĪĹ"
      ],
      [
        "å¼",
        "ı"
      ],
      [
        "ä½į",
        "ç½®"
      ],
      [
        "åģ",
        "ļ"
      ],
      [
        "å¿«",
        "éĢŁ"
      ],
      [
        "æ¯Ķ",
        "å¦Ĥ"
      ],
      [
        "åľ",
        "¨"
      ],
      [
        "éħ",
        "į"
      ],
      [
        "i",
        "n"
      ],
      [
        "l",
        "e"
      ],
      [
        "r",
        "e"
      ],
      [
        "º",
        "å®ļ"
      ],
      [
        "å",
        "Ļ¨"
      ],
      [
        "æ",
        "±Ĥ"
      ],
      [
        "ç",
        "ķ"
      ],
      [
        "åĪ",
        "«"
      ],
      [
        "åĪ",
        "°"
      ],
      [
        "æķ",
        "Ī"
      ],
      [
        "åħ",
        "¨"
      ],
      [
        "åħ",
        "±"
      ],
      [
        "äº",
        "«"
      ],
      [
        "å¤",
        "±"
      ],
      [
        "æł",
        "ĩ"
      ],
      [
        "åĽ",
        "ºå®ļ"
      ],
      [
        "ä¸º",
        "ä»Ģä¹Ī"
      ],
      [
        "ç®Ĺ",
        "æ³ķ"
      ],
      [
        "ä¼",
        "ĺ"
      ],
      [
        "è¾ĵ",
        "åĩº"
      ],
      [
        "æĬ",
        "Ĭ"
      ],
      [
        "è¿Ľ",
        "åĪ¶"
      ],
      [
        "ç§",
        "į"
      ],
      [
        "tu",
        "p"
      ],
      [
        "0",
        "0"
      ],
      [
        "H",
        "T"
      ],
      [
        "T",
        "P"
      ],
      [
        "i",
        "t"
      ],
      [
        "t",
        "h"
      ],
      [
        "ä",
        "¾"
      ],
      [
        "ç",
        "«"
      ],
      [
        "ç",
        "ī"
      ],
      [
        "é",
        "ļ"
      ],
      [
        "é",
        "Ŀ"
      ],
      [
        "ä¸",
        "Ĭ"
      ],
      [
        "åı",
        "ª"
      ],
      [
        "åı",
        "ĺ"
      ],
      [
        "æľ",
        "º"
      ],
      [
        "äº",
        "¤"
      ],
      [
        "åĨ",
        "ħ"
      ],
      [
        "åį",
        "ĩ"
      ],
      [
        "çİ",
        "°"
      ],
      [
        "åĮ",
        "º"
      ],
      [
        "åĮ",
        "ĸ"
      ],
      [
        "éĻ",
        "¤"
      ],
      [
        "åħ³",
        "ç³»"
      ],
      [
        "æİĴ",
        "åºı"
      ],
      [
        "CP",
        "U"
      ],
      [
        "is",
        "t"
      ],
      [
        "éķ",
        "¿"
      ],
      [
        "åħ±",
        "äº«"
      ],
      [
        "tup",
        "le"
      ],
      [
        "HT",
        "TP"
      ],
      [
        "çī",
        "¹"
      ],
      [
        "P",
        "y"
      ],
      [
        "å",
        "¢"
      ],
      [
        "å",
        "¸"
      ],
      [
        "å",
        "Ģ"
      ],
      [
        "å",
        "ī"
      ],
      [
        "å",
        "±Ĥ"
      ],
      [
        "æ",
        "ģ"
      ],
      [
        "è",
        "µ"
      ],
      [
        "é",
        "ģ"
      ],
      [
        "ï¼",
        "Ľ"
      ],
      [
        "çĶ",
        "Ł"
      ],
      [
        "åı",
        "ī"
      ],
      [
        "éĢ",
        "ī"
      ],
      [
        "æľ",
        "į"
      ],
      [
        "æĢ",
        "ģ"
      ],
      [
        "åº",
        "Ķ"
      ],
      [
        "å¤",
        "Ħ"
      ],
      [
        "å®",
        "ŀ"
      ],
      [
        "åŃ",
        "¦"
      ],
      [
        "æİ",
        "¥"
      ],
      [
        "åĨ",
        "į"
      ],
      [
        "æľī",
        "ä»Ģä¹Ī"
      ],
      [
        "å¼",
        "Ģ"
      ],
      [
        "æıĲ",
        "åįĩ"
      ],
      [
        "è¯¾åłĤ",
        "æ¼Ķç¤º"
      ],
      [
        "éĶ",
        "ģ"
      ],
      [
        "äºĮ",
        "åıī"
      ],
      [
        "ä¿Ŀ",
        "çķ"
      ],
      [
        "æ¸",
        "©"
      ],
      [
        "èĩ",
        "´"
      ],
      [
        "ar",
        "g"
      ],
      [
        "æĮ",
        "ģ"
      ],
      [
        "th",
        "on"
      ],
      [
        "Py",
        "thon"
      ],
      [
        "ä¿Ŀçķ",
        "Ļ"
      ],
      [
        "1",
        "00"
      ],
      [
        "d",
        "e"
      ],
      [
        "l",
        "ist"
      ],
      [
        "¡",
        "®"
      ],
      [
        "¿",
        "çĶ¨"
      ],
      [
        "â",
        "Ĩ"
      ],
      [
        "å",
        "¥"
      ],
      [
        "å",
        "Ŀ"
      ],
      [
        "æ",
        "¦Ĥ"
      ],
      [
        "ç",
        "ľ"
      ],
      [
        "ç",
        "¡®"
      ],
      [
        "é",
        "¦"
      ],
      [
        "Ł",
        "å¤±"
      ],
      [
        "æķ",
        "Ľ"
      ],
      [
        "ä½",
        "¿çĶ¨"
      ],
      [
        "è®",
        "¾"
      ],
      [
        "å¤",
        "ļ"
      ],
      [
        "ç»",
        "Ħ"
      ],
      [
        "å°",
        "ĳ"
      ],
      [
        "åĩ",
        "ı"
      ],
      [
        "æį",
        "Łå¤±"
      ],
      [
        "åĨ",
        "Ļ"
      ],
      [
        "å°ı",
        "æ¨¡åŀĭ"
      ],
      [
        "åį",
        "ķ"
      ],
      [
        "è¡",
        "Į"
      ],
      [
        "è¾ĵ",
        "åħ¥"
      ],
      [
        "éĺ",
        "Ł"
      ],
      [
        "ä¸Ń",
        "å¦Ĥä½ķ"
      ],
      [
        "åİ",
        "Ł"
      ],
      [
        "æĶ¶",
        "æķĽ"
      ],
      [
        "æĭ",
        "©"
      ],
      [
        "éĢĤ",
        "åĲĪ"
      ],
      [
        "éĿ",
        "¢"
      ],
      [
        "åĮº",
        "åĪ«"
      ],
      [
        "å¢",
        "ŀ"
      ],
      [
        "éĢī",
        "æĭ©"
      ],
      [
        "arg",
        "s"
      ],
      [
        "âĨ",
        "Ĵ"
      ],
      [
        "(",
        ")"
      ],
      [
        "5",
        "0"
      ],
      [
        "E",
        "T"
      ],
      [
        "S",
        "T"
      ],
      [
        "a",
        "t"
      ],
      [
        "e",
        "d"
      ],
      [
        "i",
        "on"
      ],
      [
        "±",
        "¡"
      ],
      [
        "·",
        "æ±Ĥ"
      ],
      [
        "½",
        "æķ°"
      ],
      [
        "Ã",
        "Ĺ"
      ],
      [
        "æ",
        "£"
      ],
      [
        "æ",
        "°"
      ],
      [
        "æ",
        "ĵį"
      ],
      [
        "è",
        "·"
      ],
      [
        "è",
        "±¡"
      ],
      [
        "ĵ",
        "åŃĺ"
      ],
      [
        "ĸ",
        "è¯į"
      ],
      [
        "æĺ",
        "İ"
      ],
      [
        "ä»",
        "¥"
      ],
      [
        "è¯",
        "ķ"
      ],
      [
        "è¯",
        "·æ±Ĥ"
      ],
      [
        "æĺ¯",
        "ä¸Ģ"
      ],
      [
        "éĢ",
        "Ģ"
      ],
      [
        "è®",
        "©"
      ],
      [
        "è®",
        "®"
      ],
      [
        "å®",
        "¹"
      ],
      [
        "æł",
        "¹"
      ],
      [
        "åĩ",
        "½æķ°"
      ],
      [
        "æį",
        "¢"
      ],
      [
        "ä¸Ģ",
        "èĩ´"
      ],
      [
        "å¿",
        "ĥ"
      ],
      [
        "éĩį",
        "å¤į"
      ],
      [
        "æıĲ",
        "é«ĺ"
      ],
      [
        "æıĲ",
        "äº¤"
      ],
      [
        "ç¼",
        "©"
      ],
      [
        "ç¼",
        "ĵåŃĺ"
      ],
      [
        "æĸ¹",
        "æ³ķ"
      ],
      [
        "äºĮ",
        "è¿ĽåĪ¶"
      ],
      [
        "ç´",
        "¯"
      ],
      [
        "è´¨",
        "éĩı"
      ],
      [
        "çĽ",
        "¸"
      ],
      [
        "çŃ",
        "ī"
      ],
      [
        "en",
        "t"
      ],
      [
        "ç»ĵ",
        "æŀĦ"
      ],
      [
        "éħį",
        "ç½®"
      ],
      [
        "ä¾",
        "¿"
      ],
      [
        "åĨħ",
        "åŃĺ"
      ],
      [
        "åī",
        "į"
      ],
      [
        "çĶŁ",
        "æĪĲ"
      ],
      [
        "åºĶ",
        "çĶ¨"
      ],
      [
        "å¥",
        "½"
      ],
      [
        "æĵį",
        "ä½ľ"
      ],
      [
        "ä¸Ģèĩ´",
        "æĢ§"
      ],
      [
        "P",
        "E"
      ],
      [
        "R",
        "o"
      ],
      [
        "e",
        "a"
      ],
      [
        "u",
        "e"
      ],
      [
        "¥",
        "åŃĲ"
      ],
      [
        "¬",
        "¡"
      ],
      [
        "·",
        "è´"
      ],
      [
        "å",
        "±"
      ],
      [
        "å",
        "ĵį"
      ],
      [
        "æ",
        "ĥ"
      ],
      [
        "æ",
        "Ĳ"
      ],
      [
        "æ",
        "¬¡"
      ],
      [
        "è",
        "°"
      ],
      [
        "è",
        "İ"
      ],
      [
        "Ģ",
        "æŁ¥"
      ],
      [
        "Ľ",
        "å»º"
      ],
      [
        "ľ",
        "ç´"
      ],
      [
        "çĶ¨",
        "äºİ"
      ],
      [
        "æĪ",
        "ĸè¯į"
      ],
      [
        "åĪ",
        "Ļ"
      ],
      [
        "åĪ",
        "ł"
      ],
      [
        "åĪ",
        "Ľå»º"
      ],
      [
        "åı",
        "¥åŃĲ"
      ],
      [
        "è¿",
        "ĺ"
      ],
      [
        "çļĦ",
        "ä½ľ"
      ],
      [
        "äº",
        "ĭ"
      ],
      [
        "èĢ",
        "¦"
      ],
      [
        "åŃ",
        "Ĺ"
      ],
      [
        "å°",
        "Ĩ"
      ],
      [
        "æł",
        "¸"
      ],
      [
        "ä¸İ",
        "è¾ĵåĩº"
      ],
      [
        "æĶ",
        "¾"
      ],
      [
        "è§£",
        "èĢ¦"
      ],
      [
        "åį",
        "ı"
      ],
      [
        "åł",
        "Ĩ"
      ],
      [
        "ç½",
        "²"
      ],
      [
        "æĸ",
        "°"
      ],
      [
        "è®Ńç»ĥ",
        "ä¸İ"
      ],
      [
        "æĿ",
        "Ĥ"
      ],
      [
        "å¯¹",
        "è±¡"
      ],
      [
        "æĽ´",
        "å¿«"
      ],
      [
        "æŃ",
        "¢"
      ],
      [
        "éĹ",
        "´"
      ],
      [
        "æķ°æį®",
        "ä¸İ"
      ],
      [
        "æ¯",
        "ı"
      ],
      [
        "æ³¨",
        "åħ¥"
      ],
      [
        "æľĢ",
        "å°ı"
      ],
      [
        "å¹¶",
        "åģļ"
      ],
      [
        "æĬ",
        "Ģ"
      ],
      [
        "éĶ",
        "®"
      ],
      [
        "æŃ¥",
        "æķ°"
      ],
      [
        "åħ³",
        "éĶ®"
      ],
      [
        "éĥ¨",
        "ç½²"
      ],
      [
        "æĭ",
        "·è´"
      ],
      [
        "è´¨",
        "æķ°"
      ],
      [
        "èĩ",
        "ª"
      ],
      [
        "åıĤæķ°",
        "å¹¶"
      ],
      [
        "è§Ĥ",
        "éĶģ"
      ],
      [
        "or",
        "m"
      ],
      [
        "è½",
        "¬"
      ],
      [
        "æķĪ",
        "çİĩ"
      ],
      [
        "æłĩ",
        "çĤ¹"
      ],
      [
        "ä¸ºä»Ģä¹Ī",
        "è¦ģ"
      ],
      [
        "ç§į",
        "åŃĲ"
      ],
      [
        "ç«",
        "ĭ"
      ],
      [
        "å±Ĥ",
        "æĿĥéĩį"
      ],
      [
        "æģ",
        "¯"
      ],
      [
        "æľį",
        "åĬ¡"
      ],
      [
        "äºĮåıī",
        "æłĳ"
      ],
      [
        "æ¸©",
        "åº¦"
      ],
      [
        "åĿ",
        "ĩ"
      ],
      [
        "æ¦Ĥ",
        "çİĩ"
      ],
      [
        "æ£",
        "ĢæŁ¥"
      ],
      [
        "æ°",
        "´"
      ],
      [
        "Ro",
        "PE"
      ],
      [
        "æĲ",
        "ľç´"
      ],
      [
        "èİ",
        "·"
      ],
      [
        "çļĦä½ľ",
        "çĶ¨"
      ],
      [
        "æĭ·è´",
        "Ŀ"
      ],
      [
        "æĲľç´",
        "¢"
      ],
      [
        ")",
        "ãĢĤ"
      ],
      [
        ")",
        "ï¼Į"
      ],
      [
        "A",
        "P"
      ],
      [
        "C",
        "I"
      ],
      [
        "G",
        "it"
      ],
      [
        "N",
        "orm"
      ],
      [
        "Q",
        "L"
      ],
      [
        "S",
        "QL"
      ],
      [
        "c",
        "h"
      ],
      [
        "i",
        "c"
      ],
      [
        "i",
        "p"
      ],
      [
        "l",
        "o"
      ],
      [
        "o",
        "c"
      ],
      [
        "s",
        "s"
      ],
      [
        "¡",
        "çĲĨ"
      ],
      [
        "¦",
        "»"
      ],
      [
        "®",
        "æĶ¹"
      ],
      [
        "±",
        "»"
      ],
      [
        "¶",
        "æĢģ"
      ],
      [
        "¹",
        "å¤§"
      ],
      [
        "»",
        "åĩ"
      ],
      [
        "¿",
        "åħ"
      ],
      [
        "¿",
        "éĹ®"
      ],
      [
        "æ",
        "·"
      ],
      [
        "æ",
        "º"
      ],
      [
        "ç",
        "ĥ"
      ],
      [
        "ç",
        "Ĭ"
      ],
      [
        "ç",
        "ĭ"
      ],
      [
        "ç",
        "¦»"
      ],
      [
        "ç",
        "±»"
      ],
      [
        "ĭ",
        "è¯ķ"
      ],
      [
        "Ķ",
        "ç¦»"
      ],
      [
        "ł",
        "çĶ¨"
      ],
      [
        "ł",
        "çİĩ"
      ],
      [
        "ä¸",
        "»"
      ],
      [
        "çĶ",
        "±"
      ],
      [
        "æī",
        "Ģ"
      ],
      [
        "æī",
        "¹å¤§"
      ],
      [
        "åı",
        "³"
      ],
      [
        "åı",
        "ĸ"
      ],
      [
        "ä»",
        "»"
      ],
      [
        "è¯",
        "»"
      ],
      [
        "ä¹",
        "łçİĩ"
      ],
      [
        "æľ",
        "¬"
      ],
      [
        "æľ",
        "Ł"
      ],
      [
        "è®",
        "¿éĹ®"
      ],
      [
        "éĩ",
        "ĩ"
      ],
      [
        "ç»",
        "Ļ"
      ],
      [
        "ç»",
        "Ł"
      ],
      [
        "ä¿",
        "®æĶ¹"
      ],
      [
        "ç®",
        "¡çĲĨ"
      ],
      [
        "æł",
        "·"
      ],
      [
        "æĶ",
        "»åĩ"
      ],
      [
        "æİ",
        "§"
      ],
      [
        "å¯",
        "Ĩ"
      ],
      [
        "å¯",
        "Ł"
      ],
      [
        "åĩ",
        "Ĩ"
      ],
      [
        "ä¸Ģ",
        "ä¸ª"
      ],
      [
        "éĢļ",
        "è¿ĩ"
      ],
      [
        "åį",
        "łçĶ¨"
      ],
      [
        "éĩį",
        "çĤ¹"
      ],
      [
        "çĲĨ",
        "è§£"
      ],
      [
        "å¹",
        "³"
      ],
      [
        "è¾",
        "¾"
      ],
      [
        "å¯¹",
        "ä½įç½®"
      ],
      [
        "æıĲ",
        "ç¤º"
      ],
      [
        "æĽ´",
        "éĢļä¿Ĺ"
      ],
      [
        "æĽ´",
        "æĸ°"
      ],
      [
        "è¶",
        "ħ"
      ],
      [
        "åıĤ",
        "èĢĥ"
      ],
      [
        "ç®Ģ",
        "åįķ"
      ],
      [
        "æĹ",
        "ł"
      ],
      [
        "éĥ",
        "½"
      ],
      [
        "åĲĪ",
        "å¹¶"
      ],
      [
        "éĺ",
        "²"
      ],
      [
        "éĻ",
        "Ĳ"
      ],
      [
        "åı¯",
        "åıĺ"
      ],
      [
        "éĥ¨",
        "åĪĨ"
      ],
      [
        "å¾",
        "®"
      ],
      [
        "æĶ¹",
        "åĨĻ"
      ],
      [
        "åĽŀ",
        "æĶ¶"
      ],
      [
        "æ¸",
        "ħ"
      ],
      [
        "éªĮè¯ģ",
        "æįŁå¤±"
      ],
      [
        "çŃ",
        "Ķ"
      ],
      [
        "è§Ĥ",
        "å¯Ł"
      ],
      [
        "æµ",
        "ĭè¯ķ"
      ],
      [
        "ä¸ĭ",
        "éĿ¢"
      ],
      [
        "è¡¨",
        "ç¤º"
      ],
      [
        "éĽĨ",
        "åĲĪ"
      ],
      [
        "å·",
        "¦"
      ],
      [
        "çº",
        "§"
      ],
      [
        "çº",
        "¿"
      ],
      [
        "in",
        "g"
      ],
      [
        "ä¼ĺ",
        "åħĪ"
      ],
      [
        "æĬĬ",
        "ä¸ĭéĿ¢"
      ],
      [
        "éļ",
        "Ķç¦»"
      ],
      [
        "éģ",
        "¿åħ"
      ],
      [
        "åŃ¦",
        "ä¹łçİĩ"
      ],
      [
        "çľ",
        "ĭ"
      ],
      [
        "éĺŁ",
        "åĪĹ"
      ],
      [
        "åİŁ",
        "åĪĻ"
      ],
      [
        "è·",
        "¯"
      ],
      [
        "è®©",
        "æ¨¡åŀĭ"
      ],
      [
        "å®¹",
        "åĻ¨"
      ],
      [
        "çĽ¸",
        "å¯¹ä½įç½®"
      ],
      [
        "åı¥åŃĲ",
        "æĶ¹åĨĻ"
      ],
      [
        "äºĭ",
        "åĬ¡"
      ],
      [
        "èİ·",
        "åıĸ"
      ],
      [
        "çĥ",
        "Ń"
      ],
      [
        "çĬ",
        "¶æĢģ"
      ],
      [
        "çĭ",
        "¬"
      ],
      [
        "æī¹å¤§",
        "å°ı"
      ],
      [
        "æĶ»åĩ",
        "»"
      ],
      [
        "éĩįçĤ¹",
        "åıĤèĢĥ"
      ],
      [
        "æıĲç¤º",
        "è¯į"
      ],
      [
        "æĬĬä¸ĭéĿ¢",
        "åı¥åŃĲæĶ¹åĨĻ"
      ],
      [
        "éģ¿åħ",
        "į"
      ],
      [
        "åŃ¦ä¹łçİĩ",
        "ä¸İ"
      ],
      [
        "æĬĬä¸ĭéĿ¢åı¥åŃĲæĶ¹åĨĻ",
        "æĽ´éĢļä¿Ĺ"
      ],
      [
        ".",
        "."
      ],
      [
        "1",
        "1"
      ],
      [
        "C",
        "l"
      ],
      [
        "G",
        "ET"
      ],
      [
        "M",
        "S"
      ],
      [
        "O",
        "ST"
      ],
      [
        "P",
        "OST"
      ],
      [
        "R",
        "ed"
      ],
      [
        "R",
        "MS"
      ],
      [
        "c",
        "op"
      ],
      [
        "i",
        "e"
      ],
      [
        "i",
        "ent"
      ],
      [
        "k",
        "w"
      ],
      [
        "u",
        "b"
      ],
      [
        "u",
        "s"
      ],
      [
        "¢",
        "¯"
      ],
      [
        "£",
        "ħ"
      ],
      [
        "¯",
        "åĬ¨"
      ],
      [
        "±",
        "åĵį"
      ],
      [
        "¶",
        "æķ°"
      ],
      [
        "¸",
        "é¦"
      ],
      [
        "â",
        "Ģ"
      ],
      [
        "å",
        "ĥ"
      ],
      [
        "æ",
        "¡"
      ],
      [
        "æ",
        "ħ"
      ],
      [
        "æ",
        "¢¯"
      ],
      [
        "ç",
        "Ł"
      ],
      [
        "è",
        "Ĵ"
      ],
      [
        "è",
        "£ħ"
      ],
      [
        "Ġ",
        "f"
      ],
      [
        "ģ",
        "è¿ĽåĪ¶"
      ],
      [
        "Ħ",
        "çĥŃ"
      ],
      [
        "ĭ",
        "ç¼©"
      ],
      [
        "ķ",
        "çĶ¨"
      ],
      [
        "Ļ",
        "å¼"
      ],
      [
        "ä¸",
        "¤"
      ],
      [
        "ä¸",
        "ī"
      ],
      [
        "åĬ",
        "Ł"
      ],
      [
        "è¿",
        "ŀ"
      ],
      [
        "è¯",
        "Ħ"
      ],
      [
        "åħ",
        "ĥ"
      ],
      [
        "æĺ¯",
        "ä»Ģä¹Ī"
      ],
      [
        "æĺ¯",
        "åĲ"
      ],
      [
        "ä½",
        "Ļå¼"
      ],
      [
        "æľ",
        "¯"
      ],
      [
        "çļĦ",
        "åĮºåĪ«"
      ],
      [
        "çļĦ",
        "çĲĨè§£"
      ],
      [
        "åº",
        "ĵ"
      ],
      [
        "å¤",
        "ĩ"
      ],
      [
        "ä¹Ī",
        "åħ¨"
      ],
      [
        "åĲ",
        "¯åĬ¨"
      ],
      [
        "æł",
        "Ī"
      ],
      [
        "æĶ",
        "¯"
      ],
      [
        "ä¸Ģ",
        "æŃ¥"
      ],
      [
        "åį",
        "ģè¿ĽåĪ¶"
      ],
      [
        "åĪĨ",
        "éħį"
      ],
      [
        "æĸ",
        "ĩ"
      ],
      [
        "å¼",
        "ķçĶ¨"
      ],
      [
        "å¯¹",
        "æ¯Ķ"
      ],
      [
        "å¯¹",
        "åºıåĪĹ"
      ],
      [
        "è®¡",
        "æķ°"
      ],
      [
        "å¦Ĥä½ķ",
        "è®¾"
      ],
      [
        "åº¦",
        "ç´¯"
      ],
      [
        "è¦ģ",
        "ä¹Īåħ¨"
      ],
      [
        "ä¼",
        "ļ"
      ],
      [
        "ä¼",
        "ł"
      ],
      [
        "éª",
        "¤"
      ],
      [
        "æľĢ",
        "åĲİ"
      ],
      [
        "æľĢ",
        "ä¼ĺ"
      ],
      [
        "æŀ",
        "ľ"
      ],
      [
        "é¢",
        "ĦçĥŃ"
      ],
      [
        "ç¼",
        "ĸ"
      ],
      [
        "åħĪ",
        "çľĭ"
      ],
      [
        "æŃ¥",
        "éª¤"
      ],
      [
        "åı¯",
        "å¤į"
      ],
      [
        "åı¯",
        "ä»¥"
      ],
      [
        "å¤į",
        "æĿĤ"
      ],
      [
        "åİ",
        "ĭç¼©"
      ],
      [
        "ç§",
        "¯"
      ],
      [
        "ä½ľ",
        "ä¸º"
      ],
      [
        "éĩı",
        "åĮĸ"
      ],
      [
        "å¾",
        "Ħ"
      ],
      [
        "å¾",
        "Ĺ"
      ],
      [
        "æ³¨æĦıåĬĽ",
        "æľº"
      ],
      [
        "æ³¨æĦıåĬĽ",
        "éĢļè¿ĩ"
      ],
      [
        "åĬ¨",
        "æĢģ"
      ],
      [
        "æĿĥéĩį",
        "è®©æ¨¡åŀĭ"
      ],
      [
        "å½",
        "Ĵ"
      ],
      [
        "å½",
        "±åĵį"
      ],
      [
        "è½",
        "»"
      ],
      [
        "ç»ĵ",
        "æŀľ"
      ],
      [
        "ç«",
        "Ļ"
      ],
      [
        "éļ",
        "ı"
      ],
      [
        "åħ³ç³»",
        "çļĦçĲĨè§£"
      ],
      [
        "CPU",
        "ä¸Ĭ"
      ],
      [
        "çī¹",
        "çĤ¹"
      ],
      [
        "å¸",
        "¸"
      ],
      [
        "å¸",
        "ĥ"
      ],
      [
        "åĢ",
        "º"
      ],
      [
        "åĢ",
        "¼"
      ],
      [
        "å¤Ħ",
        "çĲĨ"
      ],
      [
        "å¼Ģ",
        "åıĳ"
      ],
      [
        "æıĲåįĩ",
        "å¯¹åºıåĪĹ"
      ],
      [
        "Python",
        "ä¸Ń"
      ],
      [
        "é¦",
        "ĸ"
      ],
      [
        "åĩı",
        "å°ĳ"
      ],
      [
        "ä¾¿",
        "äºİ"
      ],
      [
        "å¥½",
        "å¤Ħ"
      ],
      [
        "å±",
        "Ģ"
      ],
      [
        "è°",
        "ĥ"
      ],
      [
        "åĪł",
        "éĻ¤"
      ],
      [
        "æł¸",
        "å¿ĥ"
      ],
      [
        "åįı",
        "è®®"
      ],
      [
        "æĬĢ",
        "æľ¯"
      ],
      [
        "åħ³éĶ®",
        "ä½įç½®"
      ],
      [
        "èĩª",
        "åĬ¨"
      ],
      [
        "æ·",
        "±"
      ],
      [
        "æīĢ",
        "æľī"
      ],
      [
        "æİ§",
        "åĪ¶"
      ],
      [
        "åı¯åıĺ",
        "çļĦ"
      ],
      [
        "è·¯",
        "å¾Ħ"
      ],
      [
        "çĭ¬",
        "ç«ĭ"
      ],
      [
        "éĩįçĤ¹åıĤèĢĥ",
        "åħ³éĶ®ä½įç½®"
      ],
      [
        "Cl",
        "ient"
      ],
      [
        "Red",
        "is"
      ],
      [
        "RMS",
        "Norm"
      ],
      [
        "cop",
        "y"
      ],
      [
        "kw",
        "args"
      ],
      [
        "¸é¦",
        "ı"
      ],
      [
        "åĥ",
        "ı"
      ],
      [
        "æħ",
        "¢"
      ],
      [
        "æ¢¯",
        "åº¦ç´¯"
      ],
      [
        "èĴ",
        "¸é¦ı"
      ],
      [
        "æĺ¯åĲ",
        "¦"
      ],
      [
        "ä½Ļå¼",
        "¦"
      ],
      [
        "åĪĨéħį",
        "æĿĥéĩįè®©æ¨¡åŀĭ"
      ],
      [
        "åı¯å¤į",
        "çİ°"
      ],
      [
        "å¤įæĿĤ",
        "åº¦"
      ],
      [
        "æ³¨æĦıåĬĽæľº",
        "åĪ¶"
      ],
      [
        "æ³¨æĦıåĬĽéĢļè¿ĩ",
        "åĪĨéħįæĿĥéĩįè®©æ¨¡åŀĭ"
      ],
      [
        "åĬ¨æĢģ",
        "éĩıåĮĸ"
      ],
      [
        "æıĲåįĩå¯¹åºıåĪĹ",
        "åħ³ç³»çļĦçĲĨè§£"
      ],
      [
        "æ¢¯åº¦ç´¯",
        "ç§¯"
      ],
      [
        "æ³¨æĦıåĬĽéĢļè¿ĩåĪĨéħįæĿĥéĩįè®©æ¨¡åŀĭ",
        "éĩįçĤ¹åıĤèĢĥåħ³éĶ®ä½įç½®"
      ],
      [
        ")",
        "ãĢģ"
      ],
      [
        "*",
        "*"
      ],
      [
        "2",
        "Â"
      ],
      [
        "=",
        "("
      ],
      [
        "C",
        "D"
      ],
      [
        "C",
        "S"
      ],
      [
        "C",
        "on"
      ],
      [
        "D",
        "E"
      ],
      [
        "F",
        "O"
      ],
      [
        "I",
        "FO"
      ],
      [
        "L",
        "ET"
      ],
      [
        "P",
        "U"
      ],
      [
        "R",
        "F"
      ],
      [
        "S",
        "O"
      ],
      [
        "S",
        "S"
      ],
      [
        "S",
        "er"
      ],
      [
        "T",
        "CP"
      ],
      [
        "a",
        "s"
      ],
      [
        "a",
        "in"
      ],
      [
        "c",
        "r"
      ],
      [
        "c",
        "ing"
      ],
      [
        "e",
        "ss"
      ],
      [
        "f",
        "u"
      ],
      [
        "f",
        "ea"
      ],
      [
        "k",
        "ä»"
      ],
      [
        "k",
        "ä¸İ"
      ],
      [
        "k",
        "ä¸ª"
      ],
      [
        "m",
        "ain"
      ],
      [
        "n",
        "c"
      ],
      [
        "o",
        "l"
      ],
      [
        "p",
        "ä¿ĿçķĻ"
      ],
      [
        "p",
        "éĩĩ"
      ],
      [
        "r",
        "it"
      ],
      [
        "s",
        "i"
      ],
      [
        "s",
        "t"
      ],
      [
        "t",
        "ea"
      ],
      [
        "v",
        "er"
      ],
      [
        "v",
        "ie"
      ],
      [
        "¡",
        "æģ¯"
      ],
      [
        "¤",
        "æĸ"
      ],
      [
        "©",
        "ç½"
      ],
      [
        "©",
        "åŃĲ"
      ],
      [
        "ª",
        "ģ"
      ],
      [
        "ª",
        "å¿ĥ"
      ],
      [
        "®",
        "æłĩ"
      ],
      [
        "²",
        "»"
      ],
      [
        "²",
        "ç"
      ],
      [
        "²",
        "è§ĤéĶģ"
      ],
      [
        "µ",
        "Į"
      ],
      [
        "¶",
        "ä»"
      ],
      [
        "¶",
        "æĦı"
      ],
      [
        "º",
        "åºı"
      ],
      [
        "å",
        "ŀĭ"
      ],
      [
        "å",
        "µĮ"
      ],
      [
        "æ",
        "»"
      ],
      [
        "æ",
        "Ĥ"
      ],
      [
        "æ",
        "Ļ"
      ],
      [
        "æ",
        "²»"
      ],
      [
        "ç",
        "Ħ"
      ],
      [
        "ç",
        "Ī"
      ],
      [
        "è",
        "Ĭ"
      ],
      [
        "è",
        "Į"
      ],
      [
        "é",
        "Ĥ"
      ],
      [
        "é",
        "ľ"
      ],
      [
        "Ģ",
        "è¦ģ"
      ],
      [
        "ģ",
        "ç¨ĭ"
      ],
      [
        "Ĥ",
        "çĤ¹"
      ],
      [
        "Ħ",
        "æº"
      ],
      [
        "ħ",
        "è¦ģ"
      ],
      [
        "ħ",
        "ä¿ĿçķĻ"
      ],
      [
        "ħ",
        "æĭ·è´Ŀ"
      ],
      [
        "ĩ",
        "è®Ńç»ĥä¸İ"
      ],
      [
        "Ī",
        "éĥ¨åĪĨ"
      ],
      [
        "Ī",
        "åĢ¼"
      ],
      [
        "į",
        "åİ"
      ],
      [
        "Ĳ",
        "æŃ¥"
      ],
      [
        "Ĳ",
        "è§ĤéĶģ"
      ],
      [
        "Ļ",
        "åŃ¦"
      ],
      [
        "ļ",
        "ä¸İ"
      ],
      [
        "ľ",
        "æŃ¢"
      ],
      [
        "ľ",
        "åĥı"
      ],
      [
        "Ŀ",
        "èµ"
      ],
      [
        "Ł",
        "å®ŀ"
      ],
      [
        "Ń",
        "æ³ķ"
      ],
      [
        "ä¸",
        "Ķ"
      ],
      [
        "çĶ¨",
        "çľ"
      ],
      [
        "åĬ",
        "¡å"
      ],
      [
        "æī",
        "©"
      ],
      [
        "æī",
        "¾"
      ],
      [
        "åĪ",
        "¤æĸ"
      ],
      [
        "åı",
        "Į"
      ],
      [
        "æĺ",
        "¾"
      ],
      [
        "åĬ©",
        "äºİ"
      ],
      [
        "æķ",
        "£"
      ],
      [
        "æķ",
        "´"
      ],
      [
        "æķ",
        "ĻåŃ¦"
      ],
      [
        "è¿",
        "ĳ"
      ],
      [
        "è¯",
        "Ńæ³ķ"
      ],
      [
        "åħ",
        "¶ä»"
      ],
      [
        "æĺ¯",
        "ä¸į"
      ],
      [
        "æĺ¯",
        "è´¨æķ°"
      ],
      [
        "éĢ",
        "Ĵ"
      ],
      [
        "éĢ",
        "ĲæŃ¥"
      ],
      [
        "ä¹",
        "¦"
      ],
      [
        "ä¹",
        "ħ"
      ],
      [
        "ä¹",
        "Ĳè§ĤéĶģ"
      ],
      [
        "æķ°",
        "åŃĹ"
      ],
      [
        "çļĦ",
        "æķ°æį®"
      ],
      [
        "çļĦ",
        "ä»£çłģ"
      ],
      [
        "çļĦ",
        "è¯¾åłĤæ¼Ķç¤º"
      ],
      [
        "çļĦ",
        "ä¸»"
      ],
      [
        "çļĦ",
        "éĽĨåĲĪ"
      ],
      [
        "çļĦ",
        "kä¸ª"
      ],
      [
        "äº",
        "Ĩ"
      ],
      [
        "ç»",
        "ĩè®Ńç»ĥä¸İ"
      ],
      [
        "èĢ",
        "Į"
      ],
      [
        "åĲ",
        "Į"
      ],
      [
        "åĲ",
        "į"
      ],
      [
        "åĲ",
        "ĳ"
      ],
      [
        "åŃ",
        "©åŃĲ"
      ],
      [
        "ä¿",
        "¡æģ¯"
      ],
      [
        "å°",
        "ģ"
      ],
      [
        "æł",
        "¼"
      ],
      [
        "ä¸İ",
        "åıĤæķ°"
      ],
      [
        "ä¸İ",
        "è¯¾åłĤæ¼Ķç¤º"
      ],
      [
        "ä¸İ",
        "æķĪçİĩ"
      ],
      [
        "ä¸İ",
        "è¶ħ"
      ],
      [
        "å¯",
        "¼"
      ],
      [
        "ä»Ģä¹Īæĺ¯",
        "HTTP"
      ],
      [
        "ä»Ģä¹Īæĺ¯",
        "tea"
      ],
      [
        "å®ļ",
        "ä½į"
      ],
      [
        "å®ļ",
        "æľŁ"
      ],
      [
        "ä¸Ģ",
        "ä½į"
      ],
      [
        "ä¸Ģ",
        "ç®¡çĲĨ"
      ],
      [
        "å°ı",
        "æķ°æį®"
      ],
      [
        "åºı",
        "åħ³ç³»"
      ],
      [
        "å¿",
        "ħè¦ģ"
      ],
      [
        "åĪĨ",
        "è¯į"
      ],
      [
        "åĪĨ",
        "æĶ¯"
      ],
      [
        "åĪĨ",
        "å¸ĥ"
      ],
      [
        "åĪĨ",
        "æ²»"
      ],
      [
        "æľī",
        "åĬ©äºİ"
      ],
      [
        "è´",
        "ªå¿ĥ"
      ],
      [
        "çİ",
        "¯"
      ],
      [
        "è®Ńç»ĥ",
        "ç¨³å®ļ"
      ],
      [
        "è®Ńç»ĥ",
        "æĹ¶"
      ],
      [
        "è®Ńç»ĥ",
        "éĹ®é¢ĺ"
      ],
      [
        "è®Ńç»ĥ",
        "ä¸Ńå¦Ĥä½ķ"
      ],
      [
        "è®Ńç»ĥ",
        "æŃ¥æķ°"
      ],
      [
        "è®Ńç»ĥ",
        "æĺ¯åĲ¦"
      ],
      [
        "å¯¹",
        "çĶŁæĪĲ"
      ],
      [
        "å¯¹",
        "çŃĶ"
      ],
      [
        "éĢļä¿",
        "¡"
      ],
      [
        "æĢ§",
        "èĥ½"
      ],
      [
        "æĢ§",
        "å±ĤæĿĥéĩį"
      ],
      [
        "æĽ´",
        "å°ı"
      ],
      [
        "æĽ´",
        "æį¢"
      ],
      [
        "è¯¾åłĤ",
        "ä¸Ńå¦Ĥä½ķ"
      ],
      [
        "ä¸º",
        "ä½İ"
      ],
      [
        "è®¡",
        "æ¦Ĥçİĩ"
      ],
      [
        "è§£éĩĬ",
        "RoPE"
      ],
      [
        "è§£éĩĬ",
        "æ³¨æĦıåĬĽæľºåĪ¶"
      ],
      [
        "å¦Ĥä½ķ",
        "éªĮè¯ģ"
      ],
      [
        "å¦Ĥä½ķ",
        "ç»Ħ"
      ],
      [
        "å¦Ĥä½ķ",
        "æıĲé«ĺ"
      ],
      [
        "å¦Ĥä½ķ",
        "éģ¿åħį"
      ],
      [
        "æķ°æį®",
        "æĪĸè¯į"
      ],
      [
        "æķ°æį®",
        "åºĵ"
      ],
      [
        "åº¦",
        "ä¼ĺåħĪ"
      ],
      [
        "è¦ģ",
        "è§£éĩĬæ³¨æĦıåĬĽæľºåĪ¶"
      ],
      [
        "åħ¥",
        "ä¸İè¾ĵåĩº"
      ],
      [
        "åħ¥",
        "è½»"
      ],
      [
        "è¡",
        "¡"
      ],
      [
        "æ¨",
        "¡"
      ],
      [
        "åıĤ",
        "çĶ±"
      ],
      [
        "ä½į",
        "åºıåħ³ç³»"
      ],
      [
        "ç®Ģ",
        "è¦ģè§£éĩĬæ³¨æĦıåĬĽæľºåĪ¶"
      ],
      [
        "åģ",
        "¶æķ°"
      ],
      [
        "åģ",
        "ľæŃ¢"
      ],
      [
        "è¯ģ",
        "ç»ĵæŀľ"
      ],
      [
        "è¯ģ",
        "ä¹¦"
      ],
      [
        "æľĢ",
        "é«ĺ"
      ],
      [
        "éĶ",
        "Ļ"
      ],
      [
        "æ¯Ķ",
        "çī¹"
      ],
      [
        "è¶Ĭ",
        "é«ĺ"
      ],
      [
        "è¶Ĭ",
        "åıĳ"
      ],
      [
        "è¶Ĭ",
        "ä½İ"
      ],
      [
        "è¶Ĭ",
        "éķ¿"
      ],
      [
        "è¶Ĭ",
        "ç¡®"
      ],
      [
        "é«ĺ",
        "è´¨éĩı"
      ],
      [
        "æĪĲ",
        "åĬŁ"
      ],
      [
        "è¿Ľ",
        "è¡Į"
      ],
      [
        "æĸ¹",
        "å¼ı"
      ],
      [
        "æĸ¹",
        "ä¾¿"
      ],
      [
        "éªĮ",
        "ä¸İè¯¾åłĤæ¼Ķç¤º"
      ],
      [
        "éĺ",
        "ĪåĢ¼"
      ],
      [
        "éĻ",
        "į"
      ],
      [
        "åĲİ",
        "å¤ĦçĲĨ"
      ],
      [
        "ä¿Ŀ",
        "æĮģ"
      ],
      [
        "ä¿Ŀ",
        "è¯ģç»ĵæŀľ"
      ],
      [
        "ç´",
        "ł"
      ],
      [
        "ä¸į",
        "æĶ¹"
      ],
      [
        "åıĳ",
        "çİ°"
      ],
      [
        "éĢŁ",
        "åº¦"
      ],
      [
        "åĽŀ",
        "éĢĢ"
      ],
      [
        "æ¼Ķç¤º",
        "ä¸İåıĤæķ°"
      ],
      [
        "èĥ½",
        "æıĲé«ĺ"
      ],
      [
        "çĽ",
        "®æłĩ"
      ],
      [
        "åĬł",
        "ç®Ģåįķ"
      ],
      [
        "åĬł",
        "åħ¥è½»"
      ],
      [
        "ç¨³å®ļ",
        "æĢ§"
      ],
      [
        "ç¨³å®ļ",
        "æİ¨çĲĨ"
      ],
      [
        "ç¨³å®ļ",
        "è¾ĵåĩº"
      ],
      [
        "ç¨³å®ļ",
        "æĶ¶æķĽ"
      ],
      [
        "è®¡ç®Ĺ",
        "æįŁå¤±"
      ],
      [
        "ar",
        "t"
      ],
      [
        "tu",
        "re"
      ],
      [
        "æŁ¥",
        "åŃ¦ä¹łçİĩä¸İ"
      ],
      [
        "è§Ĥ",
        "æ£ĢæŁ¥"
      ],
      [
        "æĹ¶",
        "åĩı"
      ],
      [
        "æŀĦ",
        "å»º"
      ],
      [
        "æĿĥéĩį",
        "åĩıå°ĳ"
      ],
      [
        "or",
        "cing"
      ],
      [
        "å»º",
        "è®®"
      ],
      [
        "æµ",
        "ģç¨ĭ"
      ],
      [
        "æµ",
        "ħæĭ·è´Ŀ"
      ],
      [
        "éķ",
        "ľåĥı"
      ],
      [
        "ä¸ĭ",
        "ä¸ĢæŃ¥"
      ],
      [
        "æİ¨çĲĨ",
        "è§£èĢ¦"
      ],
      [
        "æİ¨çĲĨ",
        "æĽ´å¿«"
      ],
      [
        "æİ¨çĲĨ",
        "çļĦä»£çłģ"
      ],
      [
        "è¡¨",
        "ä¸įæĶ¹"
      ],
      [
        "éĽĨ",
        "çļĦä¸»"
      ],
      [
        "å½",
        "ķ"
      ],
      [
        "é¡",
        "¶"
      ],
      [
        "é¡",
        "¹"
      ],
      [
        "é¡",
        "ºåºı"
      ],
      [
        "ä½İ",
        "æ¸©"
      ],
      [
        "åºıåĪĹ",
        "è¶Ĭéķ¿"
      ],
      [
        "åģļ",
        "å¿«éĢŁ"
      ],
      [
        "å¿«éĢŁ",
        "å®ŀ"
      ],
      [
        "å¿«éĢŁ",
        "å®ļä½į"
      ],
      [
        "åľ¨",
        "è®Ńç»ĥæĹ¶"
      ],
      [
        "åħ¨",
        "å±Ģ"
      ],
      [
        "åĽºå®ļ",
        "ç§įåŃĲ"
      ],
      [
        "åĽºå®ļ",
        "æıĲç¤ºè¯į"
      ],
      [
        "åĽºå®ļ",
        "éļı"
      ],
      [
        "ä¸ºä»Ģä¹Ī",
        "åħ±äº«"
      ],
      [
        "æĬĬ",
        "çº¿"
      ],
      [
        "æĬĬ",
        "çĽ¸å¯¹ä½įç½®"
      ],
      [
        "ä¾",
        "Ŀèµ"
      ],
      [
        "åıª",
        "æľī"
      ],
      [
        "åıª",
        "å¯¹çŃĶ"
      ],
      [
        "åıĺ",
        "æħ¢"
      ],
      [
        "æľº",
        "ç§įåŃĲ"
      ],
      [
        "CPU",
        "æ¼Ķç¤º"
      ],
      [
        "éķ¿",
        "åº¦"
      ],
      [
        "åħ±äº«",
        "æĿĥéĩįåĩıå°ĳ"
      ],
      [
        "æģ",
        "¶æĦı"
      ],
      [
        "èµ",
        "Ħæº"
      ],
      [
        "éģ",
        "įåİ"
      ],
      [
        "æľį",
        "åĬ¡å"
      ],
      [
        "å®ŀ",
        "çİ°"
      ],
      [
        "æİ¥",
        "æĶ¶"
      ],
      [
        "åĨį",
        "æŁ¥åŃ¦ä¹łçİĩä¸İ"
      ],
      [
        "æľīä»Ģä¹Ī",
        "åĮºåĪ«"
      ],
      [
        "æľīä»Ģä¹Ī",
        "å½±åĵį"
      ],
      [
        "æľīä»Ģä¹Ī",
        "å¥½å¤Ħ"
      ],
      [
        "è¯¾åłĤæ¼Ķç¤º",
        "å»ºè®®"
      ],
      [
        "äºĮåıī",
        "æĲľç´¢"
      ],
      [
        "æĮģ",
        "ä¹ħ"
      ],
      [
        "ä¿ĿçķĻ",
        "ä½įåºıåħ³ç³»"
      ],
      [
        "å°ıæ¨¡åŀĭ",
        "çļĦè¯¾åłĤæ¼Ķç¤º"
      ],
      [
        "éĢĤåĲĪ",
        "CPUæ¼Ķç¤º"
      ],
      [
        "éĢīæĭ©",
        "ç¨³å®ļæİ¨çĲĨ"
      ],
      [
        "at",
        "ion"
      ],
      [
        "æĺİ",
        "æĺ¾"
      ],
      [
        "æĺ¯ä¸Ģ",
        "ç§į"
      ],
      [
        "éĩįå¤į",
        "çĶŁæĪĲ"
      ],
      [
        "éĩįå¤į",
        "æĥ"
      ],
      [
        "ç´¯",
        "è®¡æ¦Ĥçİĩ"
      ],
      [
        "çŃī",
        "äºİ"
      ],
      [
        "éħįç½®",
        "ç»Ł"
      ],
      [
        "ue",
        "ue"
      ],
      [
        "ä¸İè¾ĵåĩº",
        "æ¸ħ"
      ],
      [
        "è®Ńç»ĥä¸İ",
        "éªĮè¯ģæįŁå¤±"
      ],
      [
        "æķ°æį®ä¸İ",
        "éħįç½®"
      ],
      [
        "æķ°æį®ä¸İ",
        "åĪĨè¯į"
      ],
      [
        "æ¯ı",
        "ä¸ª"
      ],
      [
        "æ³¨åħ¥",
        "æ³¨æĦıåĬĽ"
      ],
      [
        "å¹¶åģļ",
        "é¦ĸ"
      ],
      [
        "å¹¶åģļ",
        "åĽºå®ļæıĲç¤ºè¯į"
      ],
      [
        "æŃ¥æķ°",
        "åģļå¿«éĢŁ"
      ],
      [
        "åıĤæķ°å¹¶",
        "ä¿ĿæĮģ"
      ],
      [
        "åıĤæķ°å¹¶",
        "åĬłç®Ģåįķ"
      ],
      [
        "æłĩçĤ¹",
        "æĪĸè¯į"
      ],
      [
        "æłĩçĤ¹",
        "åĽŀéĢĢ"
      ],
      [
        "ä¸ºä»Ģä¹Īè¦ģ",
        "è§£èĢ¦"
      ],
      [
        "ä¸ºä»Ģä¹Īè¦ģ",
        "åĽºå®ļéļı"
      ],
      [
        "å±ĤæĿĥéĩį",
        "èĥ½æıĲé«ĺ"
      ],
      [
        "æ¸©åº¦",
        "å¯¹çĶŁæĪĲ"
      ],
      [
        "æ¸©åº¦",
        "è¶Ĭé«ĺ"
      ],
      [
        "æ¦Ĥçİĩ",
        "æľĢé«ĺ"
      ],
      [
        "ch",
        "er"
      ],
      [
        "ip",
        "t"
      ],
      [
        "oc",
        "k"
      ],
      [
        "ä»»",
        "åĬ¡"
      ],
      [
        "æł·",
        "æľīä»Ģä¹ĪåĮºåĪ«"
      ],
      [
        "åĩĨ",
        "å¤ĩ"
      ],
      [
        "åįłçĶ¨",
        "æĽ´å°ı"
      ],
      [
        "è¾¾",
        "éĺĪåĢ¼"
      ],
      [
        "æĹł",
        "çĬ¶æĢģ"
      ],
      [
        "éĺ²",
        "èĮ"
      ],
      [
        "å¾®",
        "éĩįå¤įæĥ"
      ],
      [
        "è§Ĥå¯Ł",
        "è®Ńç»ĥä¸İéªĮè¯ģæįŁå¤±"
      ],
      [
        "è¡¨ç¤º",
        "ä¸Ģèĩ´æĢ§"
      ],
      [
        "æ¡",
        "Īéĥ¨åĪĨ"
      ],
      [
        "çŁ",
        "Ń"
      ],
      [
        "Ġf",
        "orcing"
      ],
      [
        "ä¸¤",
        "ä¸ª"
      ],
      [
        "ä¸ī",
        "æ¬¡"
      ],
      [
        "åħĥ",
        "ç´ł"
      ],
      [
        "æľĢåĲİ",
        "ä¸Ģä½į"
      ],
      [
        "ç¼ĸ",
        "çłģ"
      ],
      [
        "åħĪçľĭ",
        "æķ°æį®ä¸İéħįç½®"
      ],
      [
        "åİĭç¼©",
        "ä¸ºä½İ"
      ],
      [
        "ä½ľä¸º",
        "ä¸ĭä¸ĢæŃ¥"
      ],
      [
        "å¾Ĺ",
        "åĪ°"
      ],
      [
        "å¸¸",
        "çĶ¨"
      ],
      [
        "ä¾¿äºİ",
        "å¿«éĢŁå®ŀ"
      ],
      [
        "è°ĥ",
        "åº¦"
      ],
      [
        "æ·±",
        "æĭ·è´Ŀ"
      ],
      [
        "æİ§åĪ¶",
        "è®Ńç»ĥæŃ¥æķ°"
      ],
      [
        "è·¯å¾Ħ",
        "ä¸İè¶ħ"
      ],
      [
        "åĬ¨æĢģéĩıåĮĸ",
        "æľīä»Ģä¹Īå¥½å¤Ħ"
      ],
      [
        "CS",
        "RF"
      ],
      [
        "DE",
        "LET"
      ],
      [
        "PU",
        "T"
      ],
      [
        "cr",
        "ipt"
      ],
      [
        "fea",
        "ture"
      ],
      [
        "kä»",
        "ħä¿ĿçķĻ"
      ],
      [
        "kä¸İ",
        "top"
      ],
      [
        "pä¿ĿçķĻ",
        "ç´¯è®¡æ¦Ĥçİĩ"
      ],
      [
        "péĩĩ",
        "æł·æľīä»Ģä¹ĪåĮºåĪ«"
      ],
      [
        "vie",
        "w"
      ],
      [
        "©ç½",
        "ļä¸İ"
      ],
      [
        "åµĮ",
        "åħ¥ä¸İè¾ĵåĩº"
      ],
      [
        "æĤ",
        "²è§ĤéĶģ"
      ],
      [
        "çĪ",
        "¶"
      ],
      [
        "èĬ",
        "ĤçĤ¹"
      ],
      [
        "éĤ",
        "»"
      ],
      [
        "éľ",
        "Ģè¦ģ"
      ],
      [
        "Łå®ŀ",
        "çĽ®æłĩ"
      ],
      [
        "çĶ¨çľ",
        "Łå®ŀçĽ®æłĩ"
      ],
      [
        "åĪ¤æĸ",
        "Ń"
      ],
      [
        "æķĻåŃ¦",
        "æ¼Ķç¤ºä¸İåıĤæķ°"
      ],
      [
        "ç»ĩè®Ńç»ĥä¸İ",
        "æİ¨çĲĨçļĦä»£çłģ"
      ],
      [
        "ä¿¡æģ¯",
        "æ³¨åħ¥æ³¨æĦıåĬĽ"
      ],
      [
        "ä¸İæķĪçİĩ",
        "æıĲåįĩ"
      ],
      [
        "ä»Ģä¹Īæĺ¯tea",
        "cher"
      ],
      [
        "å¿ħè¦ģ",
        "æĹ¶åĩı"
      ],
      [
        "åĪĨå¸ĥ",
        "å¼ı"
      ],
      [
        "æľīåĬ©äºİ",
        "è®Ńç»ĥç¨³å®ļ"
      ],
      [
        "è®Ńç»ĥä¸Ńå¦Ĥä½ķ",
        "ä½¿çĶ¨"
      ],
      [
        "è®Ńç»ĥæĺ¯åĲ¦",
        "æĶ¶æķĽ"
      ],
      [
        "æĢ§å±ĤæĿĥéĩį",
        "åİĭç¼©ä¸ºä½İ"
      ],
      [
        "æĽ´æį¢",
        "æķ°æį®æĪĸè¯į"
      ],
      [
        "è¯¾åłĤä¸Ńå¦Ĥä½ķ",
        "å¿«éĢŁå®ļä½į"
      ],
      [
        "å¦Ĥä½ķéªĮè¯ģ",
        "è®Ńç»ĥæĺ¯åĲ¦æĶ¶æķĽ"
      ],
      [
        "å¦Ĥä½ķç»Ħ",
        "ç»ĩè®Ńç»ĥä¸İæİ¨çĲĨçļĦä»£çłģ"
      ],
      [
        "å¦Ĥä½ķæıĲé«ĺ",
        "å°ıæ¨¡åŀĭçļĦè¯¾åłĤæ¼Ķç¤º"
      ],
      [
        "å¦Ĥä½ķéģ¿åħį",
        "éĩįå¤įçĶŁæĪĲ"
      ],
      [
        "åº¦ä¼ĺåħĪ",
        "æĲľç´¢"
      ],
      [
        "åıĤçĶ±",
        "éħįç½®ç»Ł"
      ],
      [
        "ç®Ģè¦ģè§£éĩĬæ³¨æĦıåĬĽæľºåĪ¶",
        "çļĦä½ľçĶ¨"
      ],
      [
        "åģľæŃ¢",
        "è¯į"
      ],
      [
        "è¶Ĭåıĳ",
        "æķ£"
      ],
      [
        "è¶Ĭä½İ",
        "è¶Ĭç¡®"
      ],
      [
        "é«ĺè´¨éĩı",
        "å°ıæķ°æį®"
      ],
      [
        "æĸ¹ä¾¿",
        "æķĻåŃ¦æ¼Ķç¤ºä¸İåıĤæķ°"
      ],
      [
        "ä¿Ŀè¯ģç»ĵæŀľ",
        "åı¯å¤įçİ°"
      ],
      [
        "åĬłåħ¥è½»",
        "å¾®éĩįå¤įæĥ"
      ],
      [
        "è¡¨ä¸įæĶ¹",
        "ä»£çłģ"
      ],
      [
        "éĽĨçļĦä¸»",
        "è§Ĥæ£ĢæŁ¥"
      ],
      [
        "ä½İæ¸©",
        "ç¨³å®ļè¾ĵåĩº"
      ],
      [
        "åľ¨è®Ńç»ĥæĹ¶",
        "çĶ¨çľŁå®ŀçĽ®æłĩ"
      ],
      [
        "ä¸ºä»Ģä¹Īåħ±äº«",
        "åµĮåħ¥ä¸İè¾ĵåĩº"
      ],
      [
        "æĬĬçº¿",
        "æĢ§å±ĤæĿĥéĩįåİĭç¼©ä¸ºä½İ"
      ],
      [
        "æĬĬçĽ¸å¯¹ä½įç½®",
        "ä¿¡æģ¯æ³¨åħ¥æ³¨æĦıåĬĽ"
      ],
      [
        "ä¾Ŀèµ",
        "ĸ"
      ],
      [
        "åıªå¯¹çŃĶ",
        "æ¡Īéĥ¨åĪĨ"
      ],
      [
        "åħ±äº«æĿĥéĩįåĩıå°ĳ",
        "åıĤæķ°å¹¶ä¿ĿæĮģ"
      ],
      [
        "èµĦæº",
        "Ĳ"
      ],
      [
        "éģįåİ",
        "Ĩ"
      ],
      [
        "æľįåĬ¡å",
        "Ļ¨"
      ],
      [
        "åĨįæŁ¥åŃ¦ä¹łçİĩä¸İ",
        "æī¹å¤§å°ı"
      ],
      [
        "è¯¾åłĤæ¼Ķç¤ºå»ºè®®",
        "ä½İæ¸©ç¨³å®ļè¾ĵåĩº"
      ],
      [
        "äºĮåıīæĲľç´¢",
        "æłĳ"
      ],
      [
        "ä¿ĿçķĻä½įåºıåħ³ç³»",
        "ä¸Ķ"
      ],
      [
        "éĢīæĭ©ç¨³å®ļæİ¨çĲĨ",
        "åıĤæķ°å¹¶åĬłç®Ģåįķ"
      ],
      [
        "ä¸İè¾ĵåĩºæ¸ħ",
        "çĲĨ"
      ],
      [
        "æķ°æį®ä¸İåĪĨè¯į",
        "ä¸ºä»Ģä¹Īè¦ģè§£èĢ¦"
      ],
      [
        "å¹¶åģļé¦ĸ",
        "æłĩçĤ¹åĽŀéĢĢ"
      ],
      [
        "å¹¶åģļåĽºå®ļæıĲç¤ºè¯į",
        "éĽĨçļĦä¸»è§Ĥæ£ĢæŁ¥"
      ],
      [
        "æŃ¥æķ°åģļå¿«éĢŁ",
        "éªĮè¯ģ"
      ],
      [
        "ä¸ºä»Ģä¹Īè¦ģåĽºå®ļéļı",
        "æľºç§įåŃĲ"
      ],
      [
        "å±ĤæĿĥéĩįèĥ½æıĲé«ĺ",
        "æķĪçİĩ"
      ],
      [
        "æ¸©åº¦å¯¹çĶŁæĪĲ",
        "æľīä»Ģä¹Īå½±åĵį"
      ],
      [
        "æ¸©åº¦è¶Ĭé«ĺ",
        "è¶Ĭåıĳæķ£"
      ],
      [
        "æ¦ĤçİĩæľĢé«ĺ",
        "çļĦkä¸ª"
      ],
      [
        "åĩĨå¤ĩ",
        "é«ĺè´¨éĩıå°ıæķ°æį®"
      ],
      [
        "è¾¾éĺĪåĢ¼",
        "çļĦéĽĨåĲĪ"
      ],
      [
        "éĺ²èĮ",
        "ĥ"
      ],
      [
        "è§Ĥå¯Łè®Ńç»ĥä¸İéªĮè¯ģæįŁå¤±",
        "å¹¶åģļåĽºå®ļæıĲç¤ºè¯įéĽĨçļĦä¸»è§Ĥæ£ĢæŁ¥"
      ],
      [
        "ä½ľä¸ºä¸ĭä¸ĢæŃ¥",
        "è¾ĵåħ¥"
      ],
      [
        "ä¾¿äºİå¿«éĢŁå®ŀ",
        "éªĮä¸İè¯¾åłĤæ¼Ķç¤º"
      ],
      [
        "è·¯å¾Ħä¸İè¶ħ",
        "åıĤçĶ±éħįç½®ç»Ł"
      ],
      [
        "DELET",
        "E"
      ],
      [
        "kä»ħä¿ĿçķĻ",
        "æ¦ĤçİĩæľĢé«ĺçļĦkä¸ª"
      ],
      [
        "pä¿ĿçķĻç´¯è®¡æ¦Ĥçİĩ",
        "è¾¾éĺĪåĢ¼çļĦéĽĨåĲĪ"
      ],
      [
        "©ç½ļä¸İ",
        "åģľæŃ¢è¯į"
      ],
      [
        "å¿ħè¦ģæĹ¶åĩı",
        "æŃ¥æķ°åģļå¿«éĢŁéªĮè¯ģ"
      ],
      [
        "æľīåĬ©äºİè®Ńç»ĥç¨³å®ļ",
        "ä¸İæķĪçİĩæıĲåįĩ"
      ],
      [
        "æĽ´æį¢æķ°æį®æĪĸè¯į",
        "è¡¨ä¸įæĶ¹ä»£çłģ"
      ],
      [
        "è¯¾åłĤä¸Ńå¦Ĥä½ķå¿«éĢŁå®ļä½į",
        "è®Ńç»ĥéĹ®é¢ĺ"
      ],
      [
        "å¦Ĥä½ķç»Ħç»ĩè®Ńç»ĥä¸İæİ¨çĲĨçļĦä»£çłģ",
        "ç»ĵæŀĦ"
      ],
      [
        "å¦Ĥä½ķæıĲé«ĺå°ıæ¨¡åŀĭçļĦè¯¾åłĤæ¼Ķç¤º",
        "è´¨éĩı"
      ],
      [
        "å¦Ĥä½ķéģ¿åħįéĩįå¤įçĶŁæĪĲ",
        "æłĩçĤ¹æĪĸè¯į"
      ],
      [
        "è¶Ĭä½İè¶Ĭç¡®",
        "å®ļ"
      ],
      [
        "æĸ¹ä¾¿æķĻåŃ¦æ¼Ķç¤ºä¸İåıĤæķ°",
        "å¯¹æ¯Ķ"
      ],
      [
        "åĬłåħ¥è½»å¾®éĩįå¤įæĥ",
        "©ç½ļä¸İåģľæŃ¢è¯į"
      ],
      [
        "åľ¨è®Ńç»ĥæĹ¶çĶ¨çľŁå®ŀçĽ®æłĩ",
        "ä½ľä¸ºä¸ĭä¸ĢæŃ¥è¾ĵåħ¥"
      ],
      [
        "ä¸ºä»Ģä¹Īåħ±äº«åµĮåħ¥ä¸İè¾ĵåĩº",
        "å±ĤæĿĥéĩįèĥ½æıĲé«ĺæķĪçİĩ"
      ],
      [
        "æĬĬçº¿æĢ§å±ĤæĿĥéĩįåİĭç¼©ä¸ºä½İ",
        "æ¯Ķçī¹"
      ],
      [
        "åıªå¯¹çŃĶæ¡Īéĥ¨åĪĨ",
        "è®¡ç®ĹæįŁå¤±"
      ],
      [
        "åħ±äº«æĿĥéĩįåĩıå°ĳåıĤæķ°å¹¶ä¿ĿæĮģ",
        "è¡¨ç¤ºä¸Ģèĩ´æĢ§"
      ],
      [
        "éĢīæĭ©ç¨³å®ļæİ¨çĲĨåıĤæķ°å¹¶åĬłç®Ģåįķ",
        "åĲİå¤ĦçĲĨ"
      ],
      [
        "å¹¶åģļé¦ĸæłĩçĤ¹åĽŀéĢĢ",
        "ä¸İè¾ĵåĩºæ¸ħçĲĨ"
      ],
      [
        "è·¯å¾Ħä¸İè¶ħåıĤçĶ±éħįç½®ç»Ł",
        "ä¸Ģç®¡çĲĨ"
      ],
      [
        "'",
        ":"
      ],
      [
        ")",
        "ÃĹ"
      ],
      [
        "1",
        "0"
      ],
      [
        "1",
        "2"
      ],
      [
        "A",
        "C"
      ],
      [
        "A",
        "CI"
      ],
      [
        "B",
        "as"
      ],
      [
        "C",
        "A"
      ],
      [
        "C",
        "o"
      ],
      [
        "C",
        "AP"
      ],
      [
        "D",
        "ock"
      ],
      [
        "E",
        "ST"
      ],
      [
        "F",
        "S"
      ],
      [
        "F",
        "lo"
      ],
      [
        "F",
        "IFO"
      ],
      [
        "H",
        "ub"
      ],
      [
        "I",
        "D"
      ],
      [
        "L",
        "a"
      ],
      [
        "L",
        "ID"
      ],
      [
        "P",
        "r"
      ],
      [
        "R",
        "e"
      ],
      [
        "R",
        "EST"
      ],
      [
        "S",
        "Y"
      ],
      [
        "T",
        "h"
      ],
      [
        "T",
        "r"
      ],
      [
        "W",
        "rit"
      ],
      [
        "X",
        "SS"
      ],
      [
        "[",
        "]"
      ],
      [
        "a",
        "d"
      ],
      [
        "a",
        "l"
      ],
      [
        "a",
        "ch"
      ],
      [
        "c",
        "y"
      ],
      [
        "c",
        "or"
      ],
      [
        "d",
        "ic"
      ],
      [
        "e",
        "m"
      ],
      [
        "e",
        "p"
      ],
      [
        "e",
        "t"
      ],
      [
        "i",
        "l"
      ],
      [
        "o",
        "k"
      ],
      [
        "q",
        "ueue"
      ],
      [
        "s",
        "ist"
      ],
      [
        "s",
        "cript"
      ],
      [
        "u",
        "g"
      ],
      [
        "v",
        "a"
      ],
      [
        "¡",
        "æīĭ"
      ],
      [
        "¡",
        "æŁ¥"
      ],
      [
        "¢",
        "«"
      ],
      [
        "£",
        "ç¡®"
      ],
      [
        "¥",
        "°"
      ],
      [
        "¨",
        "ç«Ļ"
      ],
      [
        "ª",
        "çİ¯"
      ],
      [
        "«",
        "éĢĲæŃ¥"
      ],
      [
        "¯",
        "æ°´"
      ],
      [
        "´",
        "ç»Ļ"
      ],
      [
        "¶",
        "Ī"
      ],
      [
        "º",
        "«"
      ],
      [
        "»",
        "å½ķ"
      ],
      [
        "¼",
        "é¡"
      ],
      [
        "¼",
        "å¹³"
      ],
      [
        "½",
        "åĿĩ"
      ],
      [
        "¾",
        "åĽŀæĶ¶"
      ],
      [
        "¾",
        "éĢŁåº¦"
      ],
      [
        "¿",
        "æį¢"
      ],
      [
        "¿",
        "è¿ĺ"
      ],
      [
        "¿",
        "åº¦ä¼ĺåħĪæĲľç´¢"
      ],
      [
        "Ã",
        "·"
      ],
      [
        "â",
        "ī"
      ],
      [
        "å",
        "Ĥ"
      ],
      [
        "å",
        "ĳ"
      ],
      [
        "å",
        "ŀ"
      ],
      [
        "æ",
        "®"
      ],
      [
        "æ",
        "¶Ī"
      ],
      [
        "ç",
        "ģ"
      ],
      [
        "ç",
        "Ł¥"
      ],
      [
        "è",
        "¢«"
      ],
      [
        "è",
        "º«"
      ],
      [
        "é",
        "£"
      ],
      [
        "é",
        "ĵ"
      ],
      [
        "é",
        "¥°"
      ],
      [
        "Ġ",
        "/"
      ],
      [
        "Ġ",
        "3"
      ],
      [
        "Ġ",
        "n"
      ],
      [
        "Ġ",
        "âĢ"
      ],
      [
        "Ġ",
        "Flo"
      ],
      [
        "Ģ",
        "å°ı"
      ],
      [
        "ĥ",
        "åľ"
      ],
      [
        "ĩ",
        "è®¾"
      ],
      [
        "Ī",
        "åĻ¨"
      ],
      [
        "ī",
        "åħ¨"
      ],
      [
        "ĭ",
        "éĹ´"
      ],
      [
        "ĭ",
        "è½¬"
      ],
      [
        "Į",
        "åħ¨"
      ],
      [
        "ı",
        "åħ"
      ],
      [
        "ı",
        "è§"
      ],
      [
        "Ĳ",
        "è¡Į"
      ],
      [
        "ĳ",
        "ç«Ļ"
      ],
      [
        "Ĵ",
        "åħ¥"
      ],
      [
        "Ķ",
        "åĽŀ"
      ],
      [
        "ķ",
        "è¿ĩ"
      ],
      [
        "ĸ",
        "çķ"
      ],
      [
        "Ĺ",
        "éķ¿"
      ],
      [
        "Ĺ",
        "éĻĲ"
      ],
      [
        "Ļ",
        "»å½ķ"
      ],
      [
        "Ŀ",
        "Ĺ"
      ],
      [
        "Ł",
        "è½"
      ],
      [
        "ł",
        "ä¸º"
      ],
      [
        "ä¸",
        "²"
      ],
      [
        "çĶ¨",
        "æĹ"
      ],
      [
        "çĶ¨",
        "å°ıæ¨¡åŀĭ"
      ],
      [
        "çĶ¨",
        "åĿĩ"
      ],
      [
        "çĶ¨",
        "ä½Ļå¼¦"
      ],
      [
        "åĪ",
        "©"
      ],
      [
        "çĶ¨æĪ·",
        "è®¿éĹ®"
      ],
      [
        "åı",
        "£"
      ],
      [
        "åı",
        "ĹéĻĲ"
      ],
      [
        "ä»",
        "·"
      ],
      [
        "ä»",
        "ĺ"
      ],
      [
        "è¿",
        "Ĳè¡Į"
      ],
      [
        "è¿",
        "ĶåĽŀ"
      ],
      [
        "è¯",
        "¯"
      ],
      [
        "è¯",
        "Ĩ"
      ],
      [
        "åħ",
        "·"
      ],
      [
        "åħ",
        "¼é¡"
      ],
      [
        "æĺ¯",
        "ä¸º"
      ],
      [
        "æĺ¯",
        "è·"
      ],
      [
        "æĺ¯",
        "è¶ħ"
      ],
      [
        "æĺ¯",
        "å®¹åĻ¨"
      ],
      [
        "æĺ¯",
        "åı¯åıĺçļĦ"
      ],
      [
        "æĺ¯",
        "åģ¶æķ°"
      ],
      [
        "éĢ",
        "ģ"
      ],
      [
        "ä¹",
        "°"
      ],
      [
        "ä¹",
        "ī"
      ],
      [
        "ä¹",
        "ĺ"
      ],
      [
        "ä¹",
        "ĭéĹ´"
      ],
      [
        "æľ",
        "ª"
      ],
      [
        "è®",
        "¤"
      ],
      [
        "è®",
        "º"
      ],
      [
        "æķ°",
        "éĩı"
      ],
      [
        "çļĦ",
        "å°ı"
      ],
      [
        "çļĦ",
        "åħ³ç³»"
      ],
      [
        "çļĦ",
        "æ°´"
      ],
      [
        "çļĦ",
        "æıĲç¤ºè¯į"
      ],
      [
        "çļĦ",
        "åŃ¦ä¹łçİĩä¸İ"
      ],
      [
        "çļĦ",
        "æł¸å¿ĥ"
      ],
      [
        "äº",
        "§"
      ],
      [
        "äº",
        "º"
      ],
      [
        "ï¼ī",
        "ï¼Į"
      ],
      [
        "ç»",
        "Ń"
      ],
      [
        "ç»",
        "ıåħ"
      ],
      [
        "ç»",
        "ķè¿ĩ"
      ],
      [
        "èĢ",
        "ħ"
      ],
      [
        "å®",
        "¡æŁ¥"
      ],
      [
        "å®",
        "īåħ¨"
      ],
      [
        "å®",
        "Įåħ¨"
      ],
      [
        "è¿ĩ",
        "å¤§"
      ],
      [
        "ä¸İ",
        "æĶ¶æķĽ"
      ],
      [
        "ä¸İ",
        "é¢ĦçĥŃ"
      ],
      [
        "ä¸İ",
        "çŁŃ"
      ],
      [
        "æĢĿ",
        "æĥ"
      ],
      [
        "ä»Ģä¹Īæĺ¯",
        "Python"
      ],
      [
        "ä»Ģä¹Īæĺ¯",
        "äºĭåĬ¡"
      ],
      [
        "åĨ",
        "²ç"
      ],
      [
        "åĨ",
        "Ĺéķ¿"
      ],
      [
        "å°ı",
        "åĲİ"
      ],
      [
        "å¿",
        "µ"
      ],
      [
        "æı",
        "¡æīĭ"
      ],
      [
        "æı",
        "Ĵåħ¥"
      ],
      [
        "ç½",
        "ĳç«Ļ"
      ],
      [
        "åĪĨ",
        "ä¸º"
      ],
      [
        "åĪĨ",
        "åĮº"
      ],
      [
        "æľī",
        "åºı"
      ],
      [
        "æľī",
        "æķĪ"
      ],
      [
        "åĽ",
        "¾"
      ],
      [
        "åĽ",
        "łä¸º"
      ],
      [
        "è´",
        "¥"
      ],
      [
        "è´",
        "Łè½"
      ],
      [
        "æĽ",
        "¿æį¢"
      ],
      [
        "è®Ńç»ĥ",
        "çļĦå°ı"
      ],
      [
        "å¹",
        "¿åº¦ä¼ĺåħĪæĲľç´¢"
      ],
      [
        "æĿ",
        "¥"
      ],
      [
        "æĿ",
        "¿"
      ],
      [
        "æĽ´",
        "å¥½"
      ],
      [
        "æĽ´",
        "æĺİæĺ¾"
      ],
      [
        "æŃ",
        "£ç¡®"
      ],
      [
        "éĹ",
        "Ń"
      ],
      [
        "è®¡",
        "ä¸Ģä¸ª"
      ],
      [
        "éĢļä¿Ĺ",
        "çļĦæıĲç¤ºè¯į"
      ],
      [
        "ä¼",
        "°"
      ],
      [
        "ä¼",
        "¼å¹³"
      ],
      [
        "åŃĲ",
        "æĢ§"
      ],
      [
        "åŃĲ",
        "æłĳ"
      ],
      [
        "åĴĮ",
        "tuple"
      ],
      [
        "åģ",
        "¿è¿ĺ"
      ],
      [
        "åģ",
        "ĩè®¾"
      ],
      [
        "åĪĹ",
        "è¡¨"
      ],
      [
        "æľĢ",
        "å¤§"
      ],
      [
        "åĲĪ",
        "éĢĤ"
      ],
      [
        "ç½®",
        "åĲĪéĢĤ"
      ],
      [
        "æĦı",
        "æķ°éĩı"
      ],
      [
        "er",
        "s"
      ],
      [
        "å¹¶",
        "æİĴåºı"
      ],
      [
        "å¹¶",
        "å®ļæľŁ"
      ],
      [
        "è¾ĵ",
        "åįıè®®"
      ],
      [
        "æĬ",
        "¤"
      ],
      [
        "ç¼",
        "Ģ"
      ],
      [
        "éĶ",
        "Ģå°ı"
      ],
      [
        "åħĪ",
        "åĩº"
      ],
      [
        "åħĪ",
        "å°ıåĲİ"
      ],
      [
        "äºİ",
        "æł¹"
      ],
      [
        "å¤§",
        "è¿Ľè¡Į"
      ],
      [
        "å¤§",
        "æľīæķĪ"
      ],
      [
        "è¶Ĭ",
        "éĩį"
      ],
      [
        "æ¨¡å",
        "ĿĹ"
      ],
      [
        "é«ĺ",
        "æķĪ"
      ],
      [
        "è¿Ľ",
        "ç¨ĭ"
      ],
      [
        "è¿Ľ",
        "åħĪåĩº"
      ],
      [
        "æĸ¹",
        "å¢ŀ"
      ],
      [
        "æĸ¹",
        "æł¹"
      ],
      [
        "ä¸Ń",
        "åºı"
      ],
      [
        "åı¯",
        "èĥ½"
      ],
      [
        "å¤į",
        "åĪ¶"
      ],
      [
        "æĿĥ",
        "éĻĲ"
      ],
      [
        "åİ",
        "»"
      ],
      [
        "ä¿Ŀ",
        "æĬ¤"
      ],
      [
        "åĩº",
        "CPUä¸Ĭ"
      ],
      [
        "å¾",
        "ªçİ¯"
      ],
      [
        "ä¸į",
        "æĺ¯è´¨æķ°"
      ],
      [
        "åıĳ",
        "éĢģ"
      ],
      [
        "åŃĺ",
        "åĤ"
      ],
      [
        "æİĴ",
        "åĪĹ"
      ],
      [
        "åĽŀ",
        "æº"
      ],
      [
        "åĽŀ",
        "çŃĶ"
      ],
      [
        "èĥ½",
        "è¢«"
      ],
      [
        "çĽ",
        "ĺ"
      ],
      [
        "çĽ",
        "´ç»Ļ"
      ],
      [
        "è®¡ç®Ĺ",
        "æľº"
      ],
      [
        "è®¡ç®Ĺ",
        "å¼Ģ"
      ],
      [
        "è®¡ç®Ĺ",
        "æĽ´å¿«"
      ],
      [
        "è®¡ç®Ĺ",
        "è¶Ĭéĩį"
      ],
      [
        "ä»£çłģ",
        "æıĲäº¤"
      ],
      [
        "ä»£çłģ",
        "å®¡æŁ¥"
      ],
      [
        "æ³¨æĦıåĬĽ",
        "å¤įæĿĤåº¦"
      ],
      [
        "æŁ¥",
        "æī¾"
      ],
      [
        "çŃ",
        "ĸçķ"
      ],
      [
        "éĹ®é¢ĺ",
        "æ¸ħ"
      ],
      [
        "en",
        "cy"
      ],
      [
        "æµ",
        "ıè§"
      ],
      [
        "ä¸ĭ",
        "å¢ŀ"
      ],
      [
        "éĽĨ",
        "æĪĲ"
      ],
      [
        "éĽĨ",
        "åŀĭ"
      ],
      [
        "å·",
        "§"
      ],
      [
        "å·",
        "²"
      ],
      [
        "çº",
        "¯æ°´"
      ],
      [
        "ç³»",
        "ç»Ł"
      ],
      [
        "éĢĤ",
        "çĶ¨äºİ"
      ],
      [
        "åºıåĪĹ",
        "éķ¿åº¦"
      ],
      [
        "å¿«éĢŁ",
        "æİĴåºı"
      ],
      [
        "åľ¨",
        "åĩ½æķ°"
      ],
      [
        "åľ¨",
        "åıĹéĻĲ"
      ],
      [
        "re",
        "view"
      ],
      [
        "re",
        "ad"
      ],
      [
        "æ±Ĥ",
        "è§£"
      ],
      [
        "æ±Ĥ",
        "åĴĮ"
      ],
      [
        "åĪ°",
        "çĶŁ"
      ],
      [
        "å¤±",
        "è´¥"
      ],
      [
        "åĽºå®ļ",
        "æķ°æį®"
      ],
      [
        "ä¸ºä»Ģä¹Ī",
        "åºıåĪĹéķ¿åº¦"
      ],
      [
        "ç®Ĺæ³ķ",
        "è¦ģ"
      ],
      [
        "éĿ",
        "ŀ"
      ],
      [
        "äº¤",
        "ä»ĺ"
      ],
      [
        "åĨħ",
        "éĥ¨"
      ],
      [
        "æİĴåºı",
        "ç®Ĺæ³ķ"
      ],
      [
        "tuple",
        "çĶ¨"
      ],
      [
        "tuple",
        "æĺ¯ä¸į"
      ],
      [
        "HTTP",
        "S"
      ],
      [
        "HTTP",
        "æĺ¯è¶ħ"
      ],
      [
        "çī¹",
        "æĢ§"
      ],
      [
        "èµ",
        "°"
      ],
      [
        "æİ¥",
        "åı£"
      ],
      [
        "åĨį",
        "çĶ¨ä½Ļå¼¦"
      ],
      [
        "æıĲåįĩ",
        "ç¨³å®ļæĢ§"
      ],
      [
        "æĮģ",
        "ç»Ń"
      ],
      [
        "Python",
        "ä¸Ńå¦Ĥä½ķ"
      ],
      [
        "de",
        "cor"
      ],
      [
        "list",
        "çĶ¨"
      ],
      [
        "list",
        "æĺ¯åı¯åıĺçļĦ"
      ],
      [
        "list",
        "åĴĮtuple"
      ],
      [
        "æ¦Ĥ",
        "å¿µ"
      ],
      [
        "ç¡®",
        "è®¤"
      ],
      [
        "è®¾",
        "è®¡"
      ],
      [
        "ç»Ħ",
        "SQL"
      ],
      [
        "åİŁ",
        "åŃĲæĢ§"
      ],
      [
        "éĢĤåĲĪ",
        "å°ıæ¨¡åŀĭ"
      ],
      [
        "å¢ŀ",
        "åĬł"
      ],
      [
        "å¢ŀ",
        "åĪł"
      ],
      [
        "()",
        "ãĢĤ"
      ],
      [
        "50",
        "50"
      ],
      [
        "at",
        "or"
      ],
      [
        "æĺ¯ä¸Ģ",
        "ä¸ª"
      ],
      [
        "æĺ¯ä¸Ģ",
        "ç»ĦSQL"
      ],
      [
        "éĢĢ",
        "çģ"
      ],
      [
        "ç¼©",
        "æĶ¾"
      ],
      [
        "äºĮè¿ĽåĪ¶",
        "çļĦ"
      ],
      [
        "äºĮè¿ĽåĪ¶",
        "è½¬"
      ],
      [
        "åĨħåŃĺ",
        "ä¸ĭå¢ŀ"
      ],
      [
        "åīį",
        "ç¼Ģ"
      ],
      [
        "å±",
        "ķ"
      ],
      [
        "åĵį",
        "åºĶ"
      ],
      [
        "çĶ¨äºİ",
        "åĽºå®ļæķ°æį®"
      ],
      [
        "è¿ĺ",
        "æľī"
      ],
      [
        "å°Ĩ",
        "åºĶçĶ¨"
      ],
      [
        "æĿĤ",
        "è´¨"
      ],
      [
        "éĹ´",
        "å¤įæĿĤåº¦"
      ],
      [
        "æĬĢ",
        "å·§"
      ],
      [
        "æģ¯",
        "éĺŁåĪĹ"
      ],
      [
        "æľįåĬ¡",
        "åıĳçİ°"
      ],
      [
        "RoPE",
        "çĶ¨æĹ"
      ],
      [
        "çļĦä½ľçĶ¨",
        "æĺ¯ä»Ģä¹Ī"
      ],
      [
        "AP",
        "I"
      ],
      [
        "Git",
        "Hub"
      ],
      [
        "SQL",
        "æ³¨åħ¥"
      ],
      [
        "lo",
        "g"
      ],
      [
        "oc",
        "ess"
      ],
      [
        "ä¸»",
        "è¦ģ"
      ],
      [
        "ä»»",
        "æĦıæķ°éĩı"
      ],
      [
        "æľ¬",
        "ä¼ł"
      ],
      [
        "éĩĩ",
        "çĶ¨"
      ],
      [
        "ç»Ļ",
        "åĩºCPUä¸Ĭ"
      ],
      [
        "å¯Ĩ",
        "éĽĨåŀĭ"
      ],
      [
        "éĥ½",
        "æĺ¯"
      ],
      [
        "éĺ²",
        "æŃ¢"
      ],
      [
        "å¾®",
        "æľįåĬ¡"
      ],
      [
        "è§Ĥå¯Ł",
        "éªĮè¯ģæįŁå¤±"
      ],
      [
        "çº¿",
        "ç¨ĭ"
      ],
      [
        "ing",
        "æ¨¡åĿĹ"
      ],
      [
        "ä¼ĺåħĪ",
        "çº§"
      ],
      [
        "éļĶç¦»",
        "æĢ§"
      ],
      [
        "çĽ¸å¯¹ä½įç½®",
        "ç¼ĸçłģ"
      ],
      [
        "äºĭåĬ¡",
        "æĺ¯ä¸Ģç»ĦSQL"
      ],
      [
        "éģ¿åħį",
        "åĨĹéķ¿"
      ],
      [
        "..",
        "."
      ],
      [
        "GET",
        "èİ·åıĸ"
      ],
      [
        "us",
        "ers"
      ],
      [
        "âĢ",
        "ľ"
      ],
      [
        "è£ħ",
        "æĪĲ"
      ],
      [
        "è£ħ",
        "é¥°"
      ],
      [
        "è¿ŀ",
        "éĢļ"
      ],
      [
        "è¿ŀ",
        "æİ¥"
      ],
      [
        "è¯Ħ",
        "ä¼°"
      ],
      [
        "åįģè¿ĽåĪ¶",
        "çļĦ"
      ],
      [
        "æĸĩ",
        "æľ¬ä¼ł"
      ],
      [
        "å¼ķçĶ¨",
        "è®¡æķ°"
      ],
      [
        "å¦Ĥä½ķè®¾",
        "è®¡ä¸Ģä¸ª"
      ],
      [
        "å¦Ĥä½ķè®¾",
        "ç½®åĲĪéĢĤ"
      ],
      [
        "è¦ģä¹Īåħ¨",
        "éĥ¨"
      ],
      [
        "ä¼ļ",
        "åıĺæħ¢"
      ],
      [
        "å½Ĵ",
        "å¹¶æİĴåºı"
      ],
      [
        "CPUä¸Ĭ",
        "æĽ´æĺİæĺ¾"
      ],
      [
        "Pythonä¸Ń",
        "liståĴĮtuple"
      ],
      [
        "æł¸å¿ĥ",
        "æ¦Ĥå¿µ"
      ],
      [
        "æĬĢæľ¯",
        "åĢº"
      ],
      [
        "æīĢæľī",
        "èĬĤçĤ¹"
      ],
      [
        "çĭ¬ç«ĭ",
        "å¼Ģåıĳ"
      ],
      [
        "Client",
        "åıĳéĢģ"
      ],
      [
        "RMSNorm",
        "çĶ¨åĿĩ"
      ],
      [
        "èĴ¸é¦ı",
        "æ°´"
      ],
      [
        "æ¢¯åº¦ç´¯ç§¯",
        "ä¸İé¢ĦçĥŃ"
      ],
      [
        "æ¢¯åº¦ç´¯ç§¯",
        "çļĦä½ľçĶ¨æĺ¯ä»Ģä¹Ī"
      ],
      [
        "Con",
        "sist"
      ],
      [
        "SO",
        "LID"
      ],
      [
        "Ser",
        "ver"
      ],
      [
        "fu",
        "nc"
      ],
      [
        "si",
        "f"
      ],
      [
        "st",
        "art"
      ],
      [
        "æ»",
        "¡"
      ],
      [
        "æĻ",
        "°"
      ],
      [
        "çĦ",
        "¶"
      ],
      [
        "æī©",
        "å±ķ"
      ],
      [
        "åıĮ",
        "æĸ¹"
      ],
      [
        "æķ´",
        "éĻ¤"
      ],
      [
        "è¿ĳ",
        "ä¼¼å¹³"
      ],
      [
        "åħ¶ä»",
        "ĸ"
      ],
      [
        "éĢĴ",
        "å½Ĵ"
      ],
      [
        "çļĦæķ°æį®",
        "ç»ĵæŀĦ"
      ],
      [
        "å°ģ",
        "è£ħæĪĲ"
      ],
      [
        "æł¼",
        "å¼ı"
      ],
      [
        "å¯¼",
        "èĩ´"
      ],
      [
        "ä»Ģä¹Īæĺ¯HTTP",
        "åįıè®®"
      ],
      [
        "è´ªå¿ĥ",
        "ç®Ĺæ³ķ"
      ],
      [
        "è§£éĩĬRoPE",
        "çĽ¸å¯¹ä½įç½®ç¼ĸçłģ"
      ],
      [
        "æ¨¡",
        "æĿ¿"
      ],
      [
        "éĶĻ",
        "è¯¯"
      ],
      [
        "æĸ¹å¼ı",
        "æĬĬçĽ¸å¯¹ä½įç½®ä¿¡æģ¯æ³¨åħ¥æ³¨æĦıåĬĽ"
      ],
      [
        "éĻį",
        "ä½İ"
      ],
      [
        "åºıåĪĹè¶Ĭéķ¿",
        "è®¡ç®Ĺè¶Ĭéĩį"
      ],
      [
        "åħ¨å±Ģ",
        "æľĢä¼ĺ"
      ],
      [
        "åĽºå®ļç§įåŃĲ",
        "å¹¶å®ļæľŁ"
      ],
      [
        "å®ŀçİ°",
        "å¤ļ"
      ],
      [
        "æİ¥æĶ¶",
        "ä»»æĦıæķ°éĩı"
      ],
      [
        "æĮģä¹ħ",
        "æĢ§"
      ],
      [
        "çŃīäºİ",
        "äºĮè¿ĽåĪ¶çļĦ"
      ],
      [
        "ä¸īæ¬¡",
        "æı¡æīĭ"
      ],
      [
        "æľĢåĲİä¸Ģä½į",
        "æĺ¯"
      ],
      [
        "PUT",
        "æĽ´æĸ°"
      ],
      [
        "éĤ»",
        "æİ¥"
      ],
      [
        "ä¿ĿçķĻä½įåºıåħ³ç³»ä¸Ķ",
        "è®¡ç®Ĺå¼Ģ"
      ],
      [
        "DELETE",
        "åĪłéĻ¤"
      ],
      [
        "12",
        "3"
      ],
      [
        "AC",
        "K"
      ],
      [
        "ACI",
        "D"
      ],
      [
        "Dock",
        "er"
      ],
      [
        "SY",
        "N"
      ],
      [
        "Writ",
        "e"
      ],
      [
        "[]",
        "ï¼Į"
      ],
      [
        "dic",
        "t"
      ],
      [
        "«éĢĲæŃ¥",
        "éĻįä½İ"
      ],
      [
        "½åĿĩ",
        "è¡¡"
      ],
      [
        "¾éĢŁåº¦",
        "ä¸İæĶ¶æķĽ"
      ],
      [
        "åŀ",
        "ĥåľ"
      ],
      [
        "æ¶Ī",
        "æģ¯éĺŁåĪĹ"
      ],
      [
        "ĠâĢ",
        "Ŀ"
      ],
      [
        "ĠFlo",
        "w"
      ],
      [
        "ĭè½¬",
        "æĸ¹å¼ıæĬĬçĽ¸å¯¹ä½įç½®ä¿¡æģ¯æ³¨åħ¥æ³¨æĦıåĬĽ"
      ],
      [
        "çĶ¨å°ıæ¨¡åŀĭ",
        "ä¸İçŁŃ"
      ],
      [
        "åħ¼é¡",
        "¾éĢŁåº¦ä¸İæĶ¶æķĽ"
      ],
      [
        "æĺ¯è·",
        "¨ç«Ļ"
      ],
      [
        "çļĦåŃ¦ä¹łçİĩä¸İ",
        "è°ĥåº¦"
      ],
      [
        "çļĦæł¸å¿ĥ",
        "æĢĿæĥ"
      ],
      [
        "ç»ıåħ",
        "¸"
      ],
      [
        "å®Įåħ¨",
        "äºĮåıīæłĳ"
      ],
      [
        "è¿ĩå¤§",
        "ä¼ļåıĺæħ¢"
      ],
      [
        "ä»Ģä¹Īæĺ¯Python",
        "çļĦ"
      ],
      [
        "åĨ²ç",
        "ªģ"
      ],
      [
        "è´Łè½",
        "½åĿĩè¡¡"
      ],
      [
        "è®Ńç»ĥçļĦå°ı",
        "æĬĢå·§"
      ],
      [
        "éĢļä¿ĹçļĦæıĲç¤ºè¯į",
        "æ¨¡æĿ¿"
      ],
      [
        "åŃĲæłĳ",
        "æīĢæľīèĬĤçĤ¹"
      ],
      [
        "åģĩè®¾",
        "åĨ²çªģ"
      ],
      [
        "åħĪå°ıåĲİ",
        "å¤§è¿Ľè¡Į"
      ],
      [
        "å¤§æľīæķĪ",
        "æī¹å¤§å°ı"
      ],
      [
        "æĸ¹å¢ŀ",
        "éķ¿"
      ],
      [
        "åı¯èĥ½",
        "çļĦ"
      ],
      [
        "åŃĺåĤ",
        "¨"
      ],
      [
        "åĽŀæº",
        "¯"
      ],
      [
        "åĽŀçŃĶ",
        "çĽ´ç»Ļ"
      ],
      [
        "æ³¨æĦıåĬĽå¤įæĿĤåº¦",
        "è¿ĳä¼¼å¹³"
      ],
      [
        "çŃĸçķ",
        "¥"
      ],
      [
        "éĹ®é¢ĺæ¸ħ",
        "æĻ°"
      ],
      [
        "æµıè§",
        "ĪåĻ¨"
      ],
      [
        "åľ¨åıĹéĻĲ",
        "åĨħåŃĺä¸ĭå¢ŀ"
      ],
      [
        "åĪ°çĶŁ",
        "äº§"
      ],
      [
        "ä¸ºä»Ģä¹ĪåºıåĪĹéķ¿åº¦",
        "è¿ĩå¤§ä¼ļåıĺæħ¢"
      ],
      [
        "tupleæĺ¯ä¸į",
        "åı¯åıĺçļĦ"
      ],
      [
        "HTTPæĺ¯è¶ħ",
        "æĸĩæľ¬ä¼ł"
      ],
      [
        "åĨįçĶ¨ä½Ļå¼¦",
        "éĢĢçģ"
      ],
      [
        "Pythonä¸Ńå¦Ĥä½ķ",
        "å®ŀçİ°å¤ļ"
      ],
      [
        "decor",
        "ator"
      ],
      [
        "å¢ŀåĪł",
        "æĶ¹"
      ],
      [
        "RoPEçĶ¨æĹ",
        "ĭè½¬æĸ¹å¼ıæĬĬçĽ¸å¯¹ä½įç½®ä¿¡æģ¯æ³¨åħ¥æ³¨æĦıåĬĽ"
      ],
      [
        "ç»ĻåĩºCPUä¸Ĭ",
        "è®Ńç»ĥçļĦå°ıæĬĢå·§"
      ],
      [
        "å¯ĨéĽĨåŀĭ",
        "ä»»åĬ¡"
      ],
      [
        "äºĭåĬ¡æĺ¯ä¸Ģç»ĦSQL",
        "æĵįä½ľ"
      ],
      [
        "éģ¿åħįåĨĹéķ¿",
        "åīįç¼Ģ"
      ],
      [
        "è£ħé¥°",
        "åĻ¨"
      ],
      [
        "å¦Ĥä½ķè®¾è®¡ä¸Ģä¸ª",
        "éĢļä¿ĹçļĦæıĲç¤ºè¯įæ¨¡æĿ¿"
      ],
      [
        "å¦Ĥä½ķè®¾ç½®åĲĪéĢĤ",
        "çļĦåŃ¦ä¹łçİĩä¸İè°ĥåº¦"
      ],
      [
        "Pythonä¸ŃliståĴĮtuple",
        "çļĦåĮºåĪ«"
      ],
      [
        "RMSNormçĶ¨åĿĩ",
        "æĸ¹æł¹"
      ],
      [
        "Consist",
        "ency"
      ],
      [
        "è§£éĩĬRoPEçĽ¸å¯¹ä½įç½®ç¼ĸçłģ",
        "çļĦæł¸å¿ĥæĢĿæĥ"
      ],
      [
        "åĽºå®ļç§įåŃĲå¹¶å®ļæľŁ",
        "è¯Ħä¼°"
      ],
      [
        "æİ¥æĶ¶ä»»æĦıæķ°éĩı",
        "çļĦ"
      ],
      [
        "ä¿ĿçķĻä½įåºıåħ³ç³»ä¸Ķè®¡ç®Ĺå¼Ģ",
        "éĶĢå°ı"
      ],
      [
        "åŀĥåľ",
        "¾åĽŀæĶ¶"
      ],
      [
        "çĶ¨å°ıæ¨¡åŀĭä¸İçŁŃ",
        "åºıåĪĹ"
      ],
      [
        "åħĪå°ıåĲİå¤§è¿Ľè¡Į",
        "é¢ĦçĥŃ"
      ],
      [
        "æ³¨æĦıåĬĽå¤įæĿĤåº¦è¿ĳä¼¼å¹³",
        "æĸ¹å¢ŀéķ¿"
      ],
      [
        "åľ¨åıĹéĻĲåĨħåŃĺä¸ĭå¢ŀ",
        "å¤§æľīæķĪæī¹å¤§å°ı"
      ],
      [
        "HTTPæĺ¯è¶ħæĸĩæľ¬ä¼ł",
        "è¾ĵåįıè®®"
      ],
      [
        "åĨįçĶ¨ä½Ļå¼¦éĢĢçģ",
        "«éĢĲæŃ¥éĻįä½İ"
      ],
      [
        "è§£éĩĬRoPEçĽ¸å¯¹ä½įç½®ç¼ĸçłģçļĦæł¸å¿ĥæĢĿæĥ",
        "³"
      ],
      [
        "\"",
        "("
      ],
      [
        "'",
        ")"
      ],
      [
        "'",
        "="
      ],
      [
        "(",
        "'"
      ],
      [
        "(",
        "*"
      ],
      [
        ")",
        "ï¼Ī"
      ],
      [
        "+",
        "..."
      ],
      [
        ",",
        "'"
      ],
      [
        ",",
        "**"
      ],
      [
        "0",
        "4"
      ],
      [
        "2",
        "â"
      ],
      [
        "2",
        "00"
      ],
      [
        "4",
        "9"
      ],
      [
        "4",
        "04"
      ],
      [
        "5",
        "1"
      ],
      [
        "5",
        "00"
      ],
      [
        "9",
        "8"
      ],
      [
        "9",
        "9"
      ],
      [
        "<",
        "/"
      ],
      [
        "=",
        "{"
      ],
      [
        ">",
        "ï¼Į"
      ],
      [
        "A",
        "O"
      ],
      [
        "A",
        "T"
      ],
      [
        "A",
        "c"
      ],
      [
        "A",
        "t"
      ],
      [
        "A",
        "si"
      ],
      [
        "A",
        "va"
      ],
      [
        "B",
        "e"
      ],
      [
        "B",
        "ST"
      ],
      [
        "B",
        "FS"
      ],
      [
        "C",
        "H"
      ],
      [
        "C",
        "ach"
      ],
      [
        "D",
        "B"
      ],
      [
        "D",
        "i"
      ],
      [
        "D",
        "u"
      ],
      [
        "D",
        "ä¾Ŀèµĸ"
      ],
      [
        "D",
        "FS"
      ],
      [
        "D",
        "ep"
      ],
      [
        "E",
        "u"
      ],
      [
        "F",
        "U"
      ],
      [
        "G",
        "C"
      ],
      [
        "G",
        "en"
      ],
      [
        "H",
        "t"
      ],
      [
        "H",
        "Bas"
      ],
      [
        "I",
        "n"
      ],
      [
        "I",
        "s"
      ],
      [
        "I",
        "æİ¥åı£"
      ],
      [
        "J",
        "a"
      ],
      [
        "J",
        "en"
      ],
      [
        "J",
        "SO"
      ],
      [
        "K",
        "r"
      ],
      [
        "K",
        "ar"
      ],
      [
        "K",
        "éĹ®é¢ĺ"
      ],
      [
        "K",
        "ub"
      ],
      [
        "L",
        "R"
      ],
      [
        "L",
        "S"
      ],
      [
        "L",
        "éĩ"
      ],
      [
        "L",
        "è¡¨ç¤º"
      ],
      [
        "L",
        "IFO"
      ],
      [
        "L",
        "ock"
      ],
      [
        "L",
        "FU"
      ],
      [
        "M",
        "em"
      ],
      [
        "O",
        "P"
      ],
      [
        "O",
        "R"
      ],
      [
        "O",
        "n"
      ],
      [
        "O",
        "å¼Ģ"
      ],
      [
        "O",
        "å¯ĨéĽĨåŀĭä»»åĬ¡"
      ],
      [
        "P",
        "R"
      ],
      [
        "P",
        "o"
      ],
      [
        "P",
        "re"
      ],
      [
        "P",
        "ip"
      ],
      [
        "P",
        "ol"
      ],
      [
        "P",
        "art"
      ],
      [
        "P",
        "AT"
      ],
      [
        "Q",
        "ueue"
      ],
      [
        "R",
        "DB"
      ],
      [
        "R",
        "Lè¡¨ç¤º"
      ],
      [
        "S",
        "e"
      ],
      [
        "S",
        "t"
      ],
      [
        "S",
        "åįķ"
      ],
      [
        "S",
        "cript"
      ],
      [
        "T",
        "ok"
      ],
      [
        "T",
        "LS"
      ],
      [
        "T",
        "OP"
      ],
      [
        "U",
        "RLè¡¨ç¤º"
      ],
      [
        "a",
        "b"
      ],
      [
        "a",
        "n"
      ],
      [
        "a",
        "nc"
      ],
      [
        "b",
        "ug"
      ],
      [
        "c",
        "u"
      ],
      [
        "c",
        "ach"
      ],
      [
        "d",
        "o"
      ],
      [
        "e",
        "l"
      ],
      [
        "e",
        "s"
      ],
      [
        "e",
        "éĢļä¿¡"
      ],
      [
        "f",
        "i"
      ],
      [
        "f",
        "er"
      ],
      [
        "f",
        "orm"
      ],
      [
        "g",
        "re"
      ],
      [
        "h",
        "o"
      ],
      [
        "h",
        "åħ¥"
      ],
      [
        "h",
        "in"
      ],
      [
        "i",
        "m"
      ],
      [
        "j",
        "k"
      ],
      [
        "j",
        "o"
      ],
      [
        "k",
        "a"
      ],
      [
        "k",
        "in"
      ],
      [
        "k",
        "al"
      ],
      [
        "l",
        "t"
      ],
      [
        "l",
        "y"
      ],
      [
        "m",
        "u"
      ],
      [
        "m",
        "ent"
      ],
      [
        "m",
        "ic"
      ],
      [
        "n",
        "k"
      ],
      [
        "n",
        "ä¸º"
      ],
      [
        "n",
        "et"
      ],
      [
        "o",
        "ug"
      ],
      [
        "o",
        "mic"
      ],
      [
        "p",
        "op"
      ],
      [
        "p",
        "ar"
      ],
      [
        "p",
        "us"
      ],
      [
        "p",
        "On"
      ],
      [
        "r",
        "a"
      ],
      [
        "r",
        "ation"
      ],
      [
        "r",
        "ocess"
      ],
      [
        "r",
        "oug"
      ],
      [
        "s",
        "ion"
      ],
      [
        "s",
        "ub"
      ],
      [
        "s",
        "ess"
      ],
      [
        "s",
        "æĺ¯å®¹åĻ¨"
      ],
      [
        "s",
        "form"
      ],
      [
        "t",
        "arg"
      ],
      [
        "t",
        "ion"
      ],
      [
        "t",
        "ent"
      ],
      [
        "t",
        "ol"
      ],
      [
        "t",
        "do"
      ],
      [
        "t",
        "fi"
      ],
      [
        "t",
        "pOn"
      ],
      [
        "u",
        "nk"
      ],
      [
        "v",
        "ic"
      ],
      [
        "v",
        "el"
      ],
      [
        "w",
        "n"
      ],
      [
        "x",
        "ss"
      ],
      [
        "y",
        "er"
      ],
      [
        "y",
        "ment"
      ],
      [
        "}",
        "ãĢĤ"
      ],
      [
        "¡",
        "éªĮ"
      ],
      [
        "¡",
        "æİĴåºı"
      ],
      [
        "¢",
        "äºĮ"
      ],
      [
        "£",
        "°"
      ]
    ]
  }
}